{
  "version": "1.0",
  "truncation": null,
  "padding": null,
  "added_tokens": [
    {
      "id": 0,
      "content": "[UNK]",
      "single_word": false,
      "lstrip": false,
      "rstrip": false,
      "normalized": false,
      "special": true
    },
    {
      "id": 1,
      "content": "[PAD]",
      "single_word": false,
      "lstrip": false,
      "rstrip": false,
      "normalized": false,
      "special": true
    },
    {
      "id": 2,
      "content": "[CLS]",
      "single_word": false,
      "lstrip": false,
      "rstrip": false,
      "normalized": false,
      "special": true
    },
    {
      "id": 3,
      "content": "[SEP]",
      "single_word": false,
      "lstrip": false,
      "rstrip": false,
      "normalized": false,
      "special": true
    },
    {
      "id": 4,
      "content": "[MASK]",
      "single_word": false,
      "lstrip": false,
      "rstrip": false,
      "normalized": false,
      "special": true
    }
  ],
  "normalizer": {
    "type": "Sequence",
    "normalizers": [
      {
        "type": "NFKC"
      },
      {
        "type": "Lowercase"
      }
    ]
  },
  "pre_tokenizer": {
    "type": "Sequence",
    "pretokenizers": [
      {
        "type": "WhitespaceSplit"
      },
      {
        "type": "Digits",
        "individual_digits": true
      },
      {
        "type": "Punctuation",
        "behavior": "Isolated"
      }
    ]
  },
  "post_processor": {
    "type": "TemplateProcessing",
    "single": [
      {
        "SpecialToken": {
          "id": "[CLS]",
          "type_id": 0
        }
      },
      {
        "Sequence": {
          "id": "A",
          "type_id": 0
        }
      },
      {
        "SpecialToken": {
          "id": "[SEP]",
          "type_id": 0
        }
      }
    ],
    "pair": [
      {
        "SpecialToken": {
          "id": "[CLS]",
          "type_id": 0
        }
      },
      {
        "Sequence": {
          "id": "A",
          "type_id": 0
        }
      },
      {
        "SpecialToken": {
          "id": "[SEP]",
          "type_id": 0
        }
      },
      {
        "Sequence": {
          "id": "B",
          "type_id": 1
        }
      },
      {
        "SpecialToken": {
          "id": "[SEP]",
          "type_id": 1
        }
      }
    ],
    "special_tokens": {
      "[CLS]": {
        "id": "[CLS]",
        "ids": [
          2
        ],
        "tokens": [
          "[CLS]"
        ]
      },
      "[SEP]": {
        "id": "[SEP]",
        "ids": [
          3
        ],
        "tokens": [
          "[SEP]"
        ]
      }
    }
  },
  "decoder": {
    "type": "WordPiece",
    "prefix": "##",
    "cleanup": true
  },
  "model": {
    "type": "WordPiece",
    "unk_token": "[UNK]",
    "continuing_subword_prefix": "##",
    "max_input_chars_per_word": 100,
    "vocab": {
      "[UNK]": 0,
      "[PAD]": 1,
      "[CLS]": 2,
      "[SEP]": 3,
      "[MASK]": 4,
      "!": 5,
      "\"": 6,
      "#": 7,
      "$": 8,
      "%": 9,
      "&": 10,
      "'": 11,
      "(": 12,
      ")": 13,
      "*": 14,
      "+": 15,
      ",": 16,
      "-": 17,
      ".": 18,
      "/": 19,
      "0": 20,
      "1": 21,
      "2": 22,
      "3": 23,
      "4": 24,
      "5": 25,
      "6": 26,
      "7": 27,
      "8": 28,
      "9": 29,
      ":": 30,
      ";": 31,
      "=": 32,
      "?": 33,
      "@": 34,
      "[": 35,
      "\\": 36,
      "]": 37,
      "^": 38,
      "_": 39,
      "`": 40,
      "a": 41,
      "b": 42,
      "c": 43,
      "d": 44,
      "e": 45,
      "f": 46,
      "g": 47,
      "h": 48,
      "i": 49,
      "j": 50,
      "k": 51,
      "l": 52,
      "m": 53,
      "n": 54,
      "o": 55,
      "p": 56,
      "q": 57,
      "r": 58,
      "s": 59,
      "t": 60,
      "u": 61,
      "v": 62,
      "w": 63,
      "x": 64,
      "y": 65,
      "z": 66,
      "{": 67,
      "|": 68,
      "}": 69,
      "~": 70,
      "£": 71,
      "«": 72,
      "­": 73,
      "®": 74,
      "°": 75,
      "±": 76,
      "·": 77,
      "»": 78,
      "×": 79,
      "ß": 80,
      "à": 81,
      "á": 82,
      "â": 83,
      "ã": 84,
      "ä": 85,
      "å": 86,
      "æ": 87,
      "ç": 88,
      "è": 89,
      "é": 90,
      "ê": 91,
      "ë": 92,
      "ì": 93,
      "í": 94,
      "î": 95,
      "ï": 96,
      "ð": 97,
      "ñ": 98,
      "ò": 99,
      "ó": 100,
      "ô": 101,
      "õ": 102,
      "ö": 103,
      "ø": 104,
      "ù": 105,
      "ú": 106,
      "û": 107,
      "ü": 108,
      "ý": 109,
      "þ": 110,
      "ā": 111,
      "ă": 112,
      "ą": 113,
      "ć": 114,
      "č": 115,
      "đ": 116,
      "ē": 117,
      "ė": 118,
      "ę": 119,
      "ě": 120,
      "ĝ": 121,
      "ğ": 122,
      "ġ": 123,
      "ħ": 124,
      "ī": 125,
      "ı": 126,
      "ľ": 127,
      "ł": 128,
      "ń": 129,
      "ņ": 130,
      "ň": 131,
      "ŋ": 132,
      "ō": 133,
      "ŏ": 134,
      "ő": 135,
      "œ": 136,
      "ř": 137,
      "ś": 138,
      "ş": 139,
      "š": 140,
      "ţ": 141,
      "ū": 142,
      "ŭ": 143,
      "ů": 144,
      "ų": 145,
      "ź": 146,
      "ż": 147,
      "ž": 148,
      "ư": 149,
      "ǎ": 150,
      "ǐ": 151,
      "ǔ": 152,
      "ș": 153,
      "ț": 154,
      "ɑ": 155,
      "ɔ": 156,
      "ə": 157,
      "ɛ": 158,
      "ɪ": 159,
      "ɾ": 160,
      "ʁ": 161,
      "ʃ": 162,
      "ʊ": 163,
      "ʒ": 164,
      "ʻ": 165,
      "ʼ": 166,
      "ʾ": 167,
      "ʿ": 168,
      "ˈ": 169,
      "ː": 170,
      "́": 171,
      "̇": 172,
      "̈": 173,
      "ά": 174,
      "έ": 175,
      "ή": 176,
      "ί": 177,
      "α": 178,
      "β": 179,
      "γ": 180,
      "δ": 181,
      "ε": 182,
      "ζ": 183,
      "η": 184,
      "θ": 185,
      "ι": 186,
      "κ": 187,
      "λ": 188,
      "μ": 189,
      "ν": 190,
      "ξ": 191,
      "ο": 192,
      "π": 193,
      "ρ": 194,
      "ς": 195,
      "σ": 196,
      "τ": 197,
      "υ": 198,
      "φ": 199,
      "χ": 200,
      "ψ": 201,
      "ω": 202,
      "ό": 203,
      "ύ": 204,
      "ώ": 205,
      "а": 206,
      "б": 207,
      "в": 208,
      "г": 209,
      "д": 210,
      "е": 211,
      "ж": 212,
      "з": 213,
      "и": 214,
      "й": 215,
      "к": 216,
      "л": 217,
      "м": 218,
      "н": 219,
      "о": 220,
      "п": 221,
      "р": 222,
      "с": 223,
      "т": 224,
      "у": 225,
      "ф": 226,
      "х": 227,
      "ц": 228,
      "ч": 229,
      "ш": 230,
      "щ": 231,
      "ъ": 232,
      "ы": 233,
      "ь": 234,
      "э": 235,
      "ю": 236,
      "я": 237,
      "ё": 238,
      "і": 239,
      "ї": 240,
      "ј": 241,
      "ћ": 242,
      "ғ": 243,
      "қ": 244,
      "ң": 245,
      "ү": 246,
      "ұ": 247,
      "һ": 248,
      "ӏ": 249,
      "ә": 250,
      "ө": 251,
      "ա": 252,
      "բ": 253,
      "գ": 254,
      "դ": 255,
      "ե": 256,
      "զ": 257,
      "թ": 258,
      "ի": 259,
      "լ": 260,
      "կ": 261,
      "հ": 262,
      "ղ": 263,
      "մ": 264,
      "յ": 265,
      "ն": 266,
      "շ": 267,
      "ո": 268,
      "պ": 269,
      "ս": 270,
      "վ": 271,
      "տ": 272,
      "ր": 273,
      "ւ": 274,
      "ք": 275,
      "ְ": 276,
      "ִ": 277,
      "ֵ": 278,
      "ֶ": 279,
      "ַ": 280,
      "ָ": 281,
      "ֹ": 282,
      "ּ": 283,
      "ׁ": 284,
      "א": 285,
      "ב": 286,
      "ג": 287,
      "ד": 288,
      "ה": 289,
      "ו": 290,
      "ז": 291,
      "ח": 292,
      "ט": 293,
      "י": 294,
      "כ": 295,
      "ל": 296,
      "ם": 297,
      "מ": 298,
      "ן": 299,
      "נ": 300,
      "ס": 301,
      "ע": 302,
      "פ": 303,
      "צ": 304,
      "ק": 305,
      "ר": 306,
      "ש": 307,
      "ת": 308,
      "ء": 309,
      "آ": 310,
      "أ": 311,
      "إ": 312,
      "ئ": 313,
      "ا": 314,
      "ب": 315,
      "ة": 316,
      "ت": 317,
      "ث": 318,
      "ج": 319,
      "ح": 320,
      "خ": 321,
      "د": 322,
      "ذ": 323,
      "ر": 324,
      "ز": 325,
      "س": 326,
      "ش": 327,
      "ص": 328,
      "ض": 329,
      "ط": 330,
      "ظ": 331,
      "ع": 332,
      "غ": 333,
      "ـ": 334,
      "ف": 335,
      "ق": 336,
      "ك": 337,
      "ل": 338,
      "م": 339,
      "ن": 340,
      "ه": 341,
      "و": 342,
      "ى": 343,
      "ي": 344,
      "َ": 345,
      "ُ": 346,
      "ِ": 347,
      "ّ": 348,
      "ْ": 349,
      "پ": 350,
      "چ": 351,
      "ک": 352,
      "گ": 353,
      "ھ": 354,
      "ہ": 355,
      "ۇ": 356,
      "ی": 357,
      "ە": 358,
      "ܐ": 359,
      "ܝ": 360,
      "क": 361,
      "त": 362,
      "द": 363,
      "न": 364,
      "म": 365,
      "य": 366,
      "र": 367,
      "व": 368,
      "स": 369,
      "ा": 370,
      "ि": 371,
      "ी": 372,
      "ु": 373,
      "्": 374,
      "া": 375,
      "்": 376,
      "ร": 377,
      "า": 378,
      "་": 379,
      "ა": 380,
      "ბ": 381,
      "გ": 382,
      "დ": 383,
      "ე": 384,
      "ვ": 385,
      "ზ": 386,
      "თ": 387,
      "ი": 388,
      "კ": 389,
      "ლ": 390,
      "მ": 391,
      "ნ": 392,
      "ო": 393,
      "პ": 394,
      "რ": 395,
      "ს": 396,
      "ტ": 397,
      "უ": 398,
      "ფ": 399,
      "ქ": 400,
      "ღ": 401,
      "ყ": 402,
      "შ": 403,
      "ჩ": 404,
      "ც": 405,
      "ძ": 406,
      "წ": 407,
      "ჭ": 408,
      "ხ": 409,
      "ჯ": 410,
      "ḥ": 411,
      "ḫ": 412,
      "ḳ": 413,
      "ṣ": 414,
      "ṭ": 415,
      "ệ": 416,
      "ố": 417,
      "ộ": 418,
      "ἀ": 419,
      "ἐ": 420,
      "​": 421,
      "‌": 422,
      "‎": 423,
      "‐": 424,
      "–": 425,
      "—": 426,
      "‘": 427,
      "’": 428,
      "‚": 429,
      "“": 430,
      "”": 431,
      "„": 432,
      "‟": 433,
      "†": 434,
      "•": 435,
      "‬": 436,
      "‭": 437,
      "′": 438,
      "⁄": 439,
      "€": 440,
      "₺": 441,
      "→": 442,
      "∈": 443,
      "−": 444,
      "∞": 445,
      "≈": 446,
      "≤": 447,
      "≥": 448,
      "─": 449,
      "●": 450,
      "の": 451,
      "ア": 452,
      "イ": 453,
      "ク": 454,
      "ス": 455,
      "ッ": 456,
      "ト": 457,
      "ド": 458,
      "フ": 459,
      "マ": 460,
      "モ": 461,
      "ラ": 462,
      "リ": 463,
      "ル": 464,
      "ン": 465,
      "・": 466,
      "ー": 467,
      "三": 468,
      "中": 469,
      "乡": 470,
      "于": 471,
      "人": 472,
      "会": 473,
      "北": 474,
      "县": 475,
      "可": 476,
      "和": 477,
      "国": 478,
      "國": 479,
      "大": 480,
      "天": 481,
      "子": 482,
      "山": 483,
      "島": 484,
      "市": 485,
      "新": 486,
      "日": 487,
      "本": 488,
      "東": 489,
      "民": 490,
      "汗": 491,
      "海": 492,
      "田": 493,
      "社": 494,
      "神": 495,
      "镇": 496,
      "阿": 497,
      "국": 498,
      "김": 499,
      "리": 500,
      "민": 501,
      "사": 502,
      "스": 503,
      "이": 504,
      "##ü": 505,
      "##k": 506,
      "##l": 507,
      "##e": 508,
      "##y": 509,
      "##i": 510,
      "##c": 511,
      "##s": 512,
      "##n": 513,
      "##d": 514,
      "##m": 515,
      "##ş": 516,
      "##ı": 517,
      "##r": 518,
      "##a": 519,
      "##t": 520,
      "##h": 521,
      "##p": 522,
      "##o": 523,
      "##ğ": 524,
      "##z": 525,
      "##f": 526,
      "##u": 527,
      "##j": 528,
      "##g": 529,
      "##é": 530,
      "##̇": 531,
      "##ö": 532,
      "##ç": 533,
      "##v": 534,
      "##x": 535,
      "##е": 536,
      "##р": 537,
      "##к": 538,
      "##с": 539,
      "##и": 540,
      "##в": 541,
      "##о": 542,
      "##b": 543,
      "##w": 544,
      "##ā": 545,
      "##â": 546,
      "##ä": 547,
      "##î": 548,
      "##­": 549,
      "##ө": 550,
      "##г": 551,
      "##а": 552,
      "##л": 553,
      "##ь": 554,
      "##т": 555,
      "##ч": 556,
      "##ы": 557,
      "##й": 558,
      "##ت": 559,
      "##َ": 560,
      "##ا": 561,
      "##ب": 562,
      "##ُ": 563,
      "##ο": 564,
      "##ρ": 565,
      "##ύ": 566,
      "##δ": 567,
      "##α": 568,
      "##λ": 569,
      "##∞": 570,
      "##்": 571,
      "##í": 572,
      "##ǎ": 573,
      "##à": 574,
      "##া": 575,
      "##á": 576,
      "##ə": 577,
      "##غ": 578,
      "##ج": 579,
      "##è": 580,
      "##ի": 581,
      "##ն": 582,
      "##ա": 583,
      "##վ": 584,
      "##ł": 585,
      "##д": 586,
      "##ж": 587,
      "##н": 588,
      "##ē": 589,
      "##د": 590,
      "##ن": 591,
      "##ó": 592,
      "##q": 593,
      "##γ": 594,
      "##ώ": 595,
      "##ئ": 596,
      "##ر": 597,
      "##ǐ": 598,
      "##ц": 599,
      "##č": 600,
      "##у": 601,
      "##π": 602,
      "##σ": 603,
      "##τ": 604,
      "##η": 605,
      "##μ": 606,
      "##ά": 607,
      "##ω": 608,
      "##ν": 609,
      "##ú": 610,
      "##п": 611,
      "##տ": 612,
      "##ե": 613,
      "##դ": 614,
      "##ր": 615,
      "##ń": 616,
      "##の": 617,
      "##š": 618,
      "##ñ": 619,
      "##ě": 620,
      "##ă": 621,
      "##ë": 622,
      "##ع": 623,
      "##ز": 624,
      "##ه": 625,
      "##û": 626,
      "##ვ": 627,
      "##ი": 628,
      "##ნ": 629,
      "##ო": 630,
      "##ل": 631,
      "##ي": 632,
      "##‎": 633,
      "##​": 634,
      "##ю": 635,
      "##я": 636,
      "##ш": 637,
      "##β": 638,
      "##‭": 639,
      "##́": 640,
      "##м": 641,
      "##ɑ": 642,
      "##ŋ": 643,
      "##յ": 644,
      "##ս": 645,
      "##ū": 646,
      "##ι": 647,
      "##ε": 648,
      "##ί": 649,
      "##ς": 650,
      "##ْ": 651,
      "##ح": 652,
      "##ō": 653,
      "##ê": 654,
      "##ī": 655,
      "##κ": 656,
      "##ž": 657,
      "##æ": 658,
      "##ø": 659,
      "##ì": 660,
      "##리": 661,
      "##ص": 662,
      "##ّ": 663,
      "##م": 664,
      "##ˈ": 665,
      "##ء": 666,
      "##ć": 667,
      "##б": 668,
      "##х": 669,
      "##ר": 670,
      "##ק": 671,
      "##국": 672,
      "##민": 673,
      "##و": 674,
      "##þ": 675,
      "##ン": 676,
      "##å": 677,
      "##θ": 678,
      "##ή": 679,
      "##ʾ": 680,
      "##ξ": 681,
      "##ა": 682,
      "##პ": 683,
      "##რ": 684,
      "##ჭ": 685,
      "##ე": 686,
      "##თ": 687,
      "##ß": 688,
      "##ف": 689,
      "##ہ": 690,
      "##մ": 691,
      "##կ": 692,
      "##ی": 693,
      "##त": 694,
      "##्": 695,
      "##व": 696,
      "##ा": 697,
      "##र": 698,
      "##ि": 699,
      "##щ": 700,
      "##ћ": 701,
      "##‌": 702,
      "##ו": 703,
      "##י": 704,
      "##ה": 705,
      "##ː": 706,
      "##ǔ": 707,
      "##ո": 708,
      "##ւ": 709,
      "##թ": 710,
      "##س": 711,
      "##ӏ": 712,
      "##ბ": 713,
      "##υ": 714,
      "##镇": 715,
      "##ش": 716,
      "##з": 717,
      "##ქ": 718,
      "##ფ": 719,
      "##უ": 720,
      "##ლ": 721,
      "##̈": 722,
      "##خ": 723,
      "##ù": 724,
      "##έ": 725,
      "##χ": 726,
      "##ל": 727,
      "##ם": 728,
      "##市": 729,
      "##ტ": 730,
      "##子": 731,
      "##ق": 732,
      "##ô": 733,
      "##ط": 734,
      "##ã": 735,
      "##œ": 736,
      "##э": 737,
      "##ғ": 738,
      "##қ": 739,
      "##ხ": 740,
      "##კ": 741,
      "##ә": 742,
      "##ś": 743,
      "##ת": 744,
      "##ラ": 745,
      "##ス": 746,
      "##ʻ": 747,
      "##נ": 748,
      "##ן": 749,
      "##đ": 750,
      "##ę": 751,
      "##ة": 752,
      "##ʼ": 753,
      "##ʿ": 754,
      "##民": 755,
      "##ʁ": 756,
      "##ს": 757,
      "##ც": 758,
      "##ḥ": 759,
      "##ј": 760,
      "##ד": 761,
      "##צ": 762,
      "##县": 763,
      "##ك": 764,
      "##イ": 765,
      "##ү": 766,
      "##כ": 767,
      "##ז": 768,
      "##φ": 769,
      "##ό": 770,
      "##ס": 771,
      "##ב": 772,
      "##א": 773,
      "##म": 774,
      "##შ": 775,
      "##ש": 776,
      "##ș": 777,
      "##ġ": 778,
      "##ț": 779,
      "##ک": 780,
      "##і": 781,
      "##ų": 782,
      "##ъ": 783,
      "##ф": 784,
      "##ř": 785,
      "##ָ": 786,
      "##פ": 787,
      "##ְ": 788,
      "##ּ": 789,
      "##õ": 790,
      "##ŭ": 791,
      "##스": 792,
      "##ą": 793,
      "##ė": 794,
      "##ـ": 795,
      "##מ": 796,
      "##ё": 797,
      "##이": 798,
      "##島": 799,
      "##日": 800,
      "##ֹ": 801,
      "##მ": 802,
      "##დ": 803,
      "##ث": 804,
      "##可": 805,
      "##汗": 806,
      "##ִ": 807,
      "##ζ": 808,
      "##گ": 809,
      "##ֵ": 810,
      "##国": 811,
      "##会": 812,
      "##һ": 813,
      "##ò": 814,
      "##山": 815,
      "##ψ": 816,
      "##ý": 817,
      "##ð": 818,
      "##ى": 819,
      "##ە": 820,
      "##ყ": 821,
      "##გ": 822,
      "##®": 823,
      "##ー": 824,
      "##ル": 825,
      "##社": 826,
      "##ۇ": 827,
      "##ņ": 828,
      "##ض": 829,
      "##ɪ": 830,
      "##ע": 831,
      "##ţ": 832,
      "##ھ": 833,
      "##า": 834,
      "##ร": 835,
      "##ï": 836,
      "##ِ": 837,
      "##ệ": 838,
      "##ṭ": 839,
      "##ք": 840,
      "##于": 841,
      "##պ": 842,
      "##ɾ": 843,
      "##ძ": 844,
      "##پ": 845,
      "##國": 846,
      "##ɛ": 847,
      "##ḫ": 848,
      "##ż": 849,
      "##य": 850,
      "##ŏ": 851,
      "##چ": 852,
      "##ַ": 853,
      "##ظ": 854,
      "##ĝ": 855,
      "##ɔ": 856,
      "##բ": 857,
      "##マ": 858,
      "##海": 859,
      "##ჩ": 860,
      "##ذ": 861,
      "##乡": 862,
      "##ň": 863,
      "##ג": 864,
      "##ʊ": 865,
      "##լ": 866,
      "##զ": 867,
      "##ư": 868,
      "##本": 869,
      "##أ": 870,
      "##ღ": 871,
      "##ჯ": 872,
      "##モ": 873,
      "##շ": 874,
      "##ղ": 875,
      "##°": 876,
      "##人": 877,
      "##フ": 878,
      "##ң": 879,
      "##ї": 880,
      "##ׁ": 881,
      "##≤": 882,
      "##ზ": 883,
      "##−": 884,
      "##إ": 885,
      "##ッ": 886,
      "##آ": 887,
      "##ֶ": 888,
      "##ח": 889,
      "##ľ": 890,
      "##東": 891,
      "##ź": 892,
      "##ी": 893,
      "##न": 894,
      "##द": 895,
      "##ु": 896,
      "##大": 897,
      "##ʒ": 898,
      "##北": 899,
      "##ḳ": 900,
      "##ク": 901,
      "##स": 902,
      "##─": 903,
      "##ט": 904,
      "##ʃ": 905,
      "##ő": 906,
      "##新": 907,
      "##ұ": 908,
      "##ト": 909,
      "##リ": 910,
      "##中": 911,
      "##神": 912,
      "##ṣ": 913,
      "##ド": 914,
      "##წ": 915,
      "##×": 916,
      "##和": 917,
      "##田": 918,
      "##क": 919,
      "##사": 920,
      "##ܝ": 921,
      "##ア": 922,
      "##ů": 923,
      "##ħ": 924,
      "##հ": 925,
      "##天": 926,
      "##ܐ": 927,
      "##≈": 928,
      "##三": 929,
      "##ộ": 930,
      "##գ": 931,
      "##‬": 932,
      "##阿": 933,
      "##€": 934,
      "##ố": 935,
      "##→": 936,
      "##£": 937,
      "##±": 938,
      "##≥": 939,
      "##∈": 940,
      "##ar": 941,
      "##an": 942,
      "##er": 943,
      "##in": 944,
      "##ın": 945,
      "##ir": 946,
      "##en": 947,
      "##lar": 948,
      "##ak": 949,
      "##il": 950,
      "##le": 951,
      "##da": 952,
      "##al": 953,
      "ve": 954,
      "##de": 955,
      "##as": 956,
      "##on": 957,
      "##ler": 958,
      "##un": 959,
      "##ır": 960,
      "##la": 961,
      "bir": 962,
      "##ek": 963,
      "##es": 964,
      "##li": 965,
      "##ıl": 966,
      "##ay": 967,
      "##at": 968,
      "##et": 969,
      "##ur": 970,
      "##lan": 971,
      "##şt": 972,
      "##is": 973,
      "##el": 974,
      "##am": 975,
      "##or": 976,
      "##iy": 977,
      "##ik": 978,
      "##dı": 979,
      "##ul": 980,
      "de": 981,
      "##ında": 982,
      "ya": 983,
      "##ün": 984,
      "da": 985,
      "##ür": 986,
      "##lı": 987,
      "##im": 988,
      "ba": 989,
      "##em": 990,
      "##di": 991,
      "##dan": 992,
      "ol": 993,
      "##it": 994,
      "##inde": 995,
      "##ma": 996,
      "##ya": 997,
      "##ol": 998,
      "##den": 999,
      "##ey": 1000,
      "ar": 1001,
      "##dır": 1002,
      "ka": 1003,
      "gö": 1004,
      "##us": 1005,
      "al": 1006,
      "i̇": 1007,
      "##ine": 1008,
      "bu": 1009,
      "##ta": 1010,
      "##dir": 1011,
      "##mı": 1012,
      "##ık": 1013,
      "##du": 1014,
      "##ası": 1015,
      "##ları": 1016,
      "yıl": 1017,
      "##iz": 1018,
      "##ların": 1019,
      "an": 1020,
      "sa": 1021,
      "##te": 1022,
      "##larak": 1023,
      "tar": 1024,
      "##mi": 1025,
      "iç": 1026,
      "##ük": 1027,
      "##ti": 1028,
      "##ra": 1029,
      "son": 1030,
      "##ğı": 1031,
      "olarak": 1032,
      "##ini": 1033,
      "##leri": 1034,
      "baş": 1035,
      "##esi": 1036,
      "yap": 1037,
      "ile": 1038,
      "##üm": 1039,
      "##ki": 1040,
      "il": 1041,
      "##st": 1042,
      "##um": 1043,
      "##ok": 1044,
      "kar": 1045,
      "##ği": 1046,
      "in": 1047,
      "##re": 1048,
      "##ış": 1049,
      "##inin": 1050,
      "##ından": 1051,
      "##ez": 1052,
      "##ıs": 1053,
      "##ştir": 1054,
      "##üz": 1055,
      "##ce": 1056,
      "##mak": 1057,
      "##lik": 1058,
      "##ım": 1059,
      "##om": 1060,
      "##af": 1061,
      "ay": 1062,
      "##ştır": 1063,
      "##ön": 1064,
      "##ül": 1065,
      "##az": 1066,
      "##os": 1067,
      "##oğ": 1068,
      "et": 1069,
      "##ca": 1070,
      "##iler": 1071,
      "için": 1072,
      "##ını": 1073,
      "ma": 1074,
      "yer": 1075,
      "##ut": 1076,
      "##ab": 1077,
      "or": 1078,
      "##ına": 1079,
      "##me": 1080,
      "ge": 1081,
      "en": 1082,
      "olan": 1083,
      "##ist": 1084,
      "##mek": 1085,
      "##op": 1086,
      "##ha": 1087,
      "##lu": 1088,
      "##aki": 1089,
      "bul": 1090,
      "##man": 1091,
      "oldu": 1092,
      "is": 1093,
      "te": 1094,
      "##tı": 1095,
      "tür": 1096,
      "##len": 1097,
      "##iş": 1098,
      "taraf": 1099,
      "ed": 1100,
      "##mıştır": 1101,
      "ön": 1102,
      "##aş": 1103,
      "kur": 1104,
      "##ro": 1105,
      "##ih": 1106,
      "##ru": 1107,
      "##aya": 1108,
      "yılında": 1109,
      "ver": 1110,
      "kul": 1111,
      "bö": 1112,
      "##asında": 1113,
      "##ark": 1114,
      "tarafından": 1115,
      "bulun": 1116,
      "sonra": 1117,
      "##uş": 1118,
      "##ev": 1119,
      "kon": 1120,
      "##ip": 1121,
      "##cak": 1122,
      "##ic": 1123,
      "##ib": 1124,
      "bil": 1125,
      "##miştir": 1126,
      "##yon": 1127,
      "##zer": 1128,
      "ne": 1129,
      "##ız": 1130,
      "##isi": 1131,
      "##üy": 1132,
      "oy": 1133,
      "##iye": 1134,
      "##ap": 1135,
      "##lık": 1136,
      "##ans": 1137,
      "##tadır": 1138,
      "##alı": 1139,
      "##ması": 1140,
      "##cu": 1141,
      "##yla": 1142,
      "##ının": 1143,
      "daha": 1144,
      "##ğu": 1145,
      "böl": 1146,
      "ger": 1147,
      "yar": 1148,
      "##ah": 1149,
      "göre": 1150,
      "##dar": 1151,
      "##let": 1152,
      "##lerin": 1153,
      "gen": 1154,
      "gün": 1155,
      "##anı": 1156,
      "##eh": 1157,
      "##bil": 1158,
      "##cı": 1159,
      "türk": 1160,
      "kullan": 1161,
      "nin": 1162,
      "tarih": 1163,
      "##eş": 1164,
      "##uşt": 1165,
      "##ör": 1166,
      "dev": 1167,
      "par": 1168,
      "nın": 1169,
      "se": 1170,
      "##ci": 1171,
      "##uz": 1172,
      "ilk": 1173,
      "##ken": 1174,
      "sür": 1175,
      "edil": 1176,
      "##unda": 1177,
      "##tan": 1178,
      "doğ": 1179,
      "##üş": 1180,
      "kö": 1181,
      "dön": 1182,
      "büy": 1183,
      "##eni": 1184,
      "##lay": 1185,
      "ken": 1186,
      "ın": 1187,
      "##der": 1188,
      "##daki": 1189,
      "gel": 1190,
      "den": 1191,
      "##maktadır": 1192,
      "geç": 1193,
      "çık": 1194,
      "kal": 1195,
      "##uk": 1196,
      "##uştur": 1197,
      "ad": 1198,
      "##laş": 1199,
      "##unu": 1200,
      "es": 1201,
      "üzer": 1202,
      "yaz": 1203,
      "yön": 1204,
      "ak": 1205,
      "##ers": 1206,
      "on": 1207,
      "##mekte": 1208,
      "yay": 1209,
      "tek": 1210,
      "top": 1211,
      "kat": 1212,
      "##ibi": 1213,
      "##ov": 1214,
      "##ılan": 1215,
      "##ayı": 1216,
      "##mış": 1217,
      "büyük": 1218,
      "tak": 1219,
      "##iv": 1220,
      "yaş": 1221,
      "##ot": 1222,
      "as": 1223,
      "gör": 1224,
      "er": 1225,
      "##ilm": 1226,
      "un": 1227,
      "öz": 1228,
      "##oy": 1229,
      "##eri": 1230,
      "bağ": 1231,
      "##ge": 1232,
      "sah": 1233,
      "##iyle": 1234,
      "ise": 1235,
      "aç": 1236,
      "##dığı": 1237,
      "am": 1238,
      "##mektedir": 1239,
      "alan": 1240,
      "##miş": 1241,
      "uz": 1242,
      "##lam": 1243,
      "##ili": 1244,
      "##ig": 1245,
      "ayr": 1246,
      "##ğer": 1247,
      "çok": 1248,
      "##ed": 1249,
      "##ka": 1250,
      "karş": 1251,
      "##aman": 1252,
      "##ter": 1253,
      "pro": 1254,
      "sır": 1255,
      "sav": 1256,
      "gibi": 1257,
      "ek": 1258,
      "olm": 1259,
      "hal": 1260,
      "iş": 1261,
      "##ilen": 1262,
      "##av": 1263,
      "##men": 1264,
      "##inden": 1265,
      "##esine": 1266,
      "bel": 1267,
      "##leş": 1268,
      "##ec": 1269,
      "##erk": 1270,
      "##larında": 1271,
      "çal": 1272,
      "##if": 1273,
      "öl": 1274,
      "##arı": 1275,
      "##ret": 1276,
      "##unun": 1277,
      "##tr": 1278,
      "şeh": 1279,
      "mil": 1280,
      "##sel": 1281,
      "tan": 1282,
      "yak": 1283,
      "##ladı": 1284,
      "tem": 1285,
      "arasında": 1286,
      "kay": 1287,
      "##eye": 1288,
      "##dür": 1289,
      "var": 1290,
      "yeni": 1291,
      "##ısı": 1292,
      "di": 1293,
      "##ch": 1294,
      "av": 1295,
      "san": 1296,
      "mar": 1297,
      "##dü": 1298,
      "kadar": 1299,
      "##lü": 1300,
      "##up": 1301,
      "sö": 1302,
      "ün": 1303,
      "##iyet": 1304,
      "zaman": 1305,
      "##ılı": 1306,
      "##ad": 1307,
      "##ıldı": 1308,
      "mü": 1309,
      "ev": 1310,
      "kaz": 1311,
      "##ri": 1312,
      "##esinde": 1313,
      "at": 1314,
      "##larda": 1315,
      "yüz": 1316,
      "çalış": 1317,
      "i̇s": 1318,
      "dün": 1319,
      "##rup": 1320,
      "##he": 1321,
      "har": 1322,
      "yük": 1323,
      "##lk": 1324,
      "##si": 1325,
      "uy": 1326,
      "##usu": 1327,
      "##ildi": 1328,
      "##ada": 1329,
      "##ster": 1330,
      "veya": 1331,
      "her": 1332,
      "iki": 1333,
      "##kin": 1334,
      "##bul": 1335,
      "##liği": 1336,
      "ağ": 1337,
      "##larını": 1338,
      "##üt": 1339,
      "alt": 1340,
      "ilç": 1341,
      "şark": 1342,
      "be": 1343,
      "##mas": 1344,
      "##lara": 1345,
      "##ran": 1346,
      "el": 1347,
      "oyun": 1348,
      "##est": 1349,
      "##ika": 1350,
      "##ing": 1351,
      "merk": 1352,
      "##iyon": 1353,
      "genel": 1354,
      "##eler": 1355,
      "görev": 1356,
      "dönem": 1357,
      "merkez": 1358,
      "##dur": 1359,
      "i̇n": 1360,
      "köy": 1361,
      "ayn": 1362,
      "karşı": 1363,
      "gir": 1364,
      "##ub": 1365,
      "kom": 1366,
      "##zı": 1367,
      "kr": 1368,
      "birlik": 1369,
      "özel": 1370,
      "ele": 1371,
      "bağlı": 1372,
      "ko": 1373,
      "film": 1374,
      "##anlı": 1375,
      "##uy": 1376,
      "yönet": 1377,
      "gü": 1378,
      "ort": 1379,
      "göster": 1380,
      "savaş": 1381,
      "##bol": 1382,
      "##ağ": 1383,
      "der": 1384,
      "##uv": 1385,
      "düz": 1386,
      "kap": 1387,
      "##ley": 1388,
      "##arak": 1389,
      "sağ": 1390,
      "##id": 1391,
      "adı": 1392,
      "ancak": 1393,
      "##ayan": 1394,
      "##gu": 1395,
      "alb": 1396,
      "takım": 1397,
      "düş": 1398,
      "##tir": 1399,
      "##lerini": 1400,
      "seç": 1401,
      "diğer": 1402,
      "ayrı": 1403,
      "##ünde": 1404,
      "şek": 1405,
      "##asyon": 1406,
      "##imi": 1407,
      "ser": 1408,
      "##ne": 1409,
      "##bilir": 1410,
      "##gi": 1411,
      "##lem": 1412,
      "##larının": 1413,
      "aynı": 1414,
      "ada": 1415,
      "##met": 1416,
      "##una": 1417,
      "##ren": 1418,
      "mo": 1419,
      "sez": 1420,
      "dur": 1421,
      "ara": 1422,
      "amer": 1423,
      "olduğu": 1424,
      "##ğini": 1425,
      "##çek": 1426,
      "##eli": 1427,
      "##rans": 1428,
      "sahip": 1429,
      "##fa": 1430,
      "kiş": 1431,
      "ab": 1432,
      "##ındaki": 1433,
      "##na": 1434,
      "tarihinde": 1435,
      "##lama": 1436,
      "dan": 1437,
      "##diği": 1438,
      "##alık": 1439,
      "##ça": 1440,
      "nü": 1441,
      "üç": 1442,
      "##amp": 1443,
      "kazan": 1444,
      "kurul": 1445,
      "say": 1446,
      "##olo": 1447,
      "ok": 1448,
      "##lerinde": 1449,
      "kan": 1450,
      "st": 1451,
      "##maya": 1452,
      "müz": 1453,
      "sezon": 1454,
      "##larına": 1455,
      "mah": 1456,
      "##istan": 1457,
      "##gil": 1458,
      "##por": 1459,
      "hay": 1460,
      "##ram": 1461,
      "kıs": 1462,
      "po": 1463,
      "nde": 1464,
      "etti": 1465,
      "yan": 1466,
      "##han": 1467,
      "km": 1468,
      "türkiye": 1469,
      "##ede": 1470,
      "tam": 1471,
      "##üs": 1472,
      "kor": 1473,
      "yayın": 1474,
      "do": 1475,
      "albüm": 1476,
      "for": 1477,
      "##san": 1478,
      "##iç": 1479,
      "bas": 1480,
      "hak": 1481,
      "çek": 1482,
      "haz": 1483,
      "bulunan": 1484,
      "maç": 1485,
      "##atı": 1486,
      "deği": 1487,
      "##ğını": 1488,
      "##se": 1489,
      "dünya": 1490,
      "neden": 1491,
      "##ara": 1492,
      "##tır": 1493,
      "geli": 1494,
      "birlikte": 1495,
      "nüf": 1496,
      "ta": 1497,
      "bak": 1498,
      "ro": 1499,
      "su": 1500,
      "belir": 1501,
      "devlet": 1502,
      "şarkı": 1503,
      "kend": 1504,
      "yol": 1505,
      "##ştı": 1506,
      "##mesi": 1507,
      "the": 1508,
      "##yan": 1509,
      "yaptı": 1510,
      "mu": 1511,
      "##ivers": 1512,
      "önem": 1513,
      "bo": 1514,
      "boy": 1515,
      "eski": 1516,
      "##erek": 1517,
      "öğ": 1518,
      "##stan": 1519,
      "gerçek": 1520,
      "##lerde": 1521,
      "ülk": 1522,
      "##ten": 1523,
      "##sa": 1524,
      "##likle": 1525,
      "başk": 1526,
      "##lerinin": 1527,
      "##lus": 1528,
      "##iversit": 1529,
      "ayrıca": 1530,
      "taş": 1531,
      "önce": 1532,
      "sal": 1533,
      "sonu": 1534,
      "bölüm": 1535,
      "ama": 1536,
      "##tik": 1537,
      "eğ": 1538,
      "aş": 1539,
      "bur": 1540,
      "ör": 1541,
      "##cü": 1542,
      "üniversit": 1543,
      "met": 1544,
      "ye": 1545,
      "yüks": 1546,
      "açık": 1547,
      "alman": 1548,
      "##mp": 1549,
      "aldı": 1550,
      "##ılır": 1551,
      "ch": 1552,
      "##enin": 1553,
      "bölg": 1554,
      "lig": 1555,
      "##ust": 1556,
      "tur": 1557,
      "gelen": 1558,
      "olduğ": 1559,
      "##ama": 1560,
      "i̇ngil": 1561,
      "os": 1562,
      "yüksek": 1563,
      "kad": 1564,
      "oluş": 1565,
      "fut": 1566,
      "##yle": 1567,
      "##eb": 1568,
      "fark": 1569,
      "hem": 1570,
      "az": 1571,
      "ulus": 1572,
      "nda": 1573,
      "kuz": 1574,
      "##eti": 1575,
      "##ep": 1576,
      "man": 1577,
      "##eyi": 1578,
      "##istem": 1579,
      "ben": 1580,
      "##ile": 1581,
      "##ordu": 1582,
      "adlı": 1583,
      "##ck": 1584,
      "##ilir": 1585,
      "önemli": 1586,
      "##oloj": 1587,
      "##lardan": 1588,
      "##ünü": 1589,
      "üret": 1590,
      "##ilmiştir": 1591,
      "##lerinden": 1592,
      "##dül": 1593,
      "dir": 1594,
      "başladı": 1595,
      "sistem": 1596,
      "dış": 1597,
      "tüm": 1598,
      "bazı": 1599,
      "bilin": 1600,
      "##eki": 1601,
      "düzen": 1602,
      "##ımı": 1603,
      "##tal": 1604,
      "söz": 1605,
      "futbol": 1606,
      "##lere": 1607,
      "fak": 1608,
      "ilçesine": 1609,
      "şekil": 1610,
      "##leştir": 1611,
      "res": 1612,
      "##üp": 1613,
      "##luk": 1614,
      "içer": 1615,
      "diz": 1616,
      "##ılmıştır": 1617,
      "kit": 1618,
      "frans": 1619,
      "has": 1620,
      "üy": 1621,
      "##larından": 1622,
      "##stanbul": 1623,
      "##iyat": 1624,
      "##hur": 1625,
      "##lat": 1626,
      "i̇stanbul": 1627,
      "içinde": 1628,
      "##lerine": 1629,
      "##landı": 1630,
      "etk": 1631,
      "kuzey": 1632,
      "##ıy": 1633,
      "rus": 1634,
      "şehir": 1635,
      "güney": 1636,
      "##ileri": 1637,
      "##yi": 1638,
      "##fer": 1639,
      "re": 1640,
      "gerek": 1641,
      "##raf": 1642,
      "##rak": 1643,
      "##üşt": 1644,
      "kü": 1645,
      "##ba": 1646,
      "yapılan": 1647,
      "##liğ": 1648,
      "##lanan": 1649,
      "oluştur": 1650,
      "avrup": 1651,
      "ey": 1652,
      "##og": 1653,
      "##iyas": 1654,
      "nun": 1655,
      "##mes": 1656,
      "birç": 1657,
      "sanat": 1658,
      "fin": 1659,
      "##kinci": 1660,
      "##tür": 1661,
      "sen": 1662,
      "hav": 1663,
      "##landır": 1664,
      "kız": 1665,
      "grup": 1666,
      "na": 1667,
      "may": 1668,
      "biri": 1669,
      "##les": 1670,
      "ot": 1671,
      "eş": 1672,
      "cum": 1673,
      "bölge": 1674,
      "ha": 1675,
      "##çe": 1676,
      "üst": 1677,
      "ço": 1678,
      "mart": 1679,
      "##van": 1680,
      "get": 1681,
      "birçok": 1682,
      "ödül": 1683,
      "ask": 1684,
      "ist": 1685,
      "ter": 1686,
      "##led": 1687,
      "şamp": 1688,
      "gru": 1689,
      "orta": 1690,
      "avrupa": 1691,
      "çeş": 1692,
      "tamam": 1693,
      "yarış": 1694,
      "olmuştur": 1695,
      "şampiyon": 1696,
      "eğit": 1697,
      "daki": 1698,
      "gaz": 1699,
      "muh": 1700,
      "çev": 1701,
      "##ilik": 1702,
      "osman": 1703,
      "bit": 1704,
      "çıkar": 1705,
      "gal": 1706,
      "değiş": 1707,
      "mahal": 1708,
      "ola": 1709,
      "cumhur": 1710,
      "faz": 1711,
      "kral": 1712,
      "##tib": 1713,
      "oyn": 1714,
      "getir": 1715,
      "ber": 1716,
      "çocu": 1717,
      "şekilde": 1718,
      "##lek": 1719,
      "halk": 1720,
      "##ide": 1721,
      "##lığı": 1722,
      "##çi": 1723,
      "birleş": 1724,
      "üzerinde": 1725,
      "bar": 1726,
      "##lendir": 1727,
      "durum": 1728,
      "devam": 1729,
      "sat": 1730,
      "vardır": 1731,
      "süre": 1732,
      "üzerine": 1733,
      "uzun": 1734,
      "hük": 1735,
      "##bir": 1736,
      "##ia": 1737,
      "##arat": 1738,
      "bun": 1739,
      "fil": 1740,
      "uzak": 1741,
      "çalışma": 1742,
      "##od": 1743,
      "harek": 1744,
      "##muştur": 1745,
      "##tar": 1746,
      "küç": 1747,
      "##sız": 1748,
      "##gan": 1749,
      "##meye": 1750,
      "göz": 1751,
      "itib": 1752,
      "##leme": 1753,
      "olduğunu": 1754,
      "ard": 1755,
      "yet": 1756,
      "üzere": 1757,
      "sor": 1758,
      "iz": 1759,
      "##ılık": 1760,
      "grub": 1761,
      "üniversitesi": 1762,
      "##asına": 1763,
      "insan": 1764,
      "bin": 1765,
      "##üne": 1766,
      "hat": 1767,
      "##isinde": 1768,
      "ik": 1769,
      "kez": 1770,
      "##ket": 1771,
      "##mir": 1772,
      "le": 1773,
      "amerik": 1774,
      "çeşit": 1775,
      "mal": 1776,
      "##vet": 1777,
      "##ınır": 1778,
      "##tör": 1779,
      "olmak": 1780,
      "sin": 1781,
      "kabul": 1782,
      "tut": 1783,
      "art": 1784,
      "##ent": 1785,
      "kır": 1786,
      "##ulu": 1787,
      "yüzy": 1788,
      "sonr": 1789,
      "küçük": 1790,
      "han": 1791,
      "##iya": 1792,
      "yaklaş": 1793,
      "abd": 1794,
      "##olu": 1795,
      "nis": 1796,
      "dil": 1797,
      "##for": 1798,
      "##ow": 1799,
      "yardı": 1800,
      "başar": 1801,
      "ardından": 1802,
      "çoğ": 1803,
      "i̇ngiliz": 1804,
      "ili": 1805,
      "deniz": 1806,
      "##ecek": 1807,
      "ocak": 1808,
      "lis": 1809,
      "of": 1810,
      "kası": 1811,
      "##yet": 1812,
      "mayıs": 1813,
      "##ard": 1814,
      "uygu": 1815,
      "osmanlı": 1816,
      "##ber": 1817,
      "##alan": 1818,
      "farklı": 1819,
      "güç": 1820,
      "şir": 1821,
      "##şk": 1822,
      "ilg": 1823,
      "değ": 1824,
      "##layan": 1825,
      "dör": 1826,
      "fazla": 1827,
      "##lis": 1828,
      "mak": 1829,
      "##det": 1830,
      "ikinci": 1831,
      "##ılmış": 1832,
      "kendi": 1833,
      "müzik": 1834,
      "kadın": 1835,
      "doğru": 1836,
      "im": 1837,
      "yüzyıl": 1838,
      "##esinin": 1839,
      "##iran": 1840,
      "##luğu": 1841,
      "tekn": 1842,
      "tah": 1843,
      "##ve": 1844,
      "##arator": 1845,
      "şehr": 1846,
      "##mparator": 1847,
      "##lül": 1848,
      "isim": 1849,
      "bunun": 1850,
      "##okt": 1851,
      "alın": 1852,
      "kasım": 1853,
      "##siyon": 1854,
      "eden": 1855,
      "sı": 1856,
      "##ğü": 1857,
      "aralık": 1858,
      "oyuncu": 1859,
      "öğren": 1860,
      "##üştür": 1861,
      "##ga": 1862,
      "ilinin": 1863,
      "##duğu": 1864,
      "sev": 1865,
      "##aret": 1866,
      "rom": 1867,
      "mez": 1868,
      "##muz": 1869,
      "li": 1870,
      "şub": 1871,
      "nüfus": 1872,
      "mahalle": 1873,
      "##şti": 1874,
      "ekim": 1875,
      "sayı": 1876,
      "beled": 1877,
      "geçir": 1878,
      "sar": 1879,
      "yen": 1880,
      "##ece": 1881,
      "yakın": 1882,
      "eylül": 1883,
      "##las": 1884,
      "##yal": 1885,
      "tas": 1886,
      "##ton": 1887,
      "##larla": 1888,
      "eğitim": 1889,
      "ii": 1890,
      "haziran": 1891,
      "##hil": 1892,
      "per": 1893,
      "nisan": 1894,
      "rol": 1895,
      "tes": 1896,
      "bab": 1897,
      "##layı": 1898,
      "##daş": 1899,
      "iyi": 1900,
      "tab": 1901,
      "yaşam": 1902,
      "##sal": 1903,
      "temmuz": 1904,
      "olup": 1905,
      "##ıla": 1906,
      "yardım": 1907,
      "la": 1908,
      "##ustos": 1909,
      "kes": 1910,
      "##lerden": 1911,
      "ağustos": 1912,
      "##aber": 1913,
      "##anlığı": 1914,
      "##dece": 1915,
      "pr": 1916,
      "##oz": 1917,
      "çeşitli": 1918,
      "bilim": 1919,
      "af": 1920,
      "hakk": 1921,
      "##ünün": 1922,
      "yas": 1923,
      "##çı": 1924,
      "siyas": 1925,
      "bey": 1926,
      "kil": 1927,
      "##arası": 1928,
      "zor": 1929,
      "sınır": 1930,
      "##bi": 1931,
      "##unca": 1932,
      "kuru": 1933,
      "çocuk": 1934,
      "i̇lk": 1935,
      "part": 1936,
      "cumhuriyet": 1937,
      "kayn": 1938,
      "##sil": 1939,
      "düşün": 1940,
      "##rar": 1941,
      "dağ": 1942,
      "amerika": 1943,
      "merkezi": 1944,
      "##ali": 1945,
      "sırasında": 1946,
      "##ısında": 1947,
      "kül": 1948,
      "##gram": 1949,
      "kişi": 1950,
      "mek": 1951,
      "kuv": 1952,
      "##ort": 1953,
      "kısa": 1954,
      "bulunmaktadır": 1955,
      "##lo": 1956,
      "##lev": 1957,
      "##deki": 1958,
      "##ilerin": 1959,
      "##dik": 1960,
      "eya": 1961,
      "##atik": 1962,
      "##ant": 1963,
      "duy": 1964,
      "savaşı": 1965,
      "ortaya": 1966,
      "##elen": 1967,
      "sadece": 1968,
      "dav": 1969,
      "beş": 1970,
      "olma": 1971,
      "eser": 1972,
      "##dy": 1973,
      "geri": 1974,
      "##ğin": 1975,
      "sil": 1976,
      "karar": 1977,
      "##fes": 1978,
      "##ade": 1979,
      "şubat": 1980,
      "##unan": 1981,
      "bilg": 1982,
      "##tü": 1983,
      "görül": 1984,
      "sp": 1985,
      "##ağı": 1986,
      "##ati": 1987,
      "birleşik": 1988,
      "br": 1989,
      "##emi": 1990,
      "araştır": 1991,
      "##muş": 1992,
      "##sı": 1993,
      "yaklaşık": 1994,
      "hareket": 1995,
      "hiz": 1996,
      "geliştir": 1997,
      "karak": 1998,
      "nüfusu": 1999,
      "##ven": 2000,
      "dest": 2001,
      "##son": 2002,
      "##siz": 2003,
      "ses": 2004,
      "program": 2005,
      "eder": 2006,
      "doğu": 2007,
      "başla": 2008,
      "em": 2009,
      "##art": 2010,
      "##gı": 2011,
      "ede": 2012,
      "##lenen": 2013,
      "mes": 2014,
      "topl": 2015,
      "##indeki": 2016,
      "boyunca": 2017,
      "sos": 2018,
      "##ht": 2019,
      "hayat": 2020,
      "i̇tal": 2021,
      "mev": 2022,
      "geliş": 2023,
      "görün": 2024,
      "git": 2025,
      "fa": 2026,
      "yılı": 2027,
      "co": 2028,
      "hız": 2029,
      "saldır": 2030,
      "##onya": 2031,
      "fakat": 2032,
      "##ud": 2033,
      "uç": 2034,
      "##anın": 2035,
      "##ğında": 2036,
      "zamanda": 2037,
      "yeniden": 2038,
      "so": 2039,
      "##müştür": 2040,
      "##ilmiş": 2041,
      "nedeniyle": 2042,
      "##masına": 2043,
      "gön": 2044,
      "##ast": 2045,
      "gol": 2046,
      "##asının": 2047,
      "##masını": 2048,
      "mad": 2049,
      "yılları": 2050,
      "can": 2051,
      "##ümüz": 2052,
      "hizmet": 2053,
      "jo": 2054,
      "##üb": 2055,
      "erk": 2056,
      "##esini": 2057,
      "##lak": 2058,
      "##asındaki": 2059,
      "sh": 2060,
      "##lardır": 2061,
      "haf": 2062,
      "##lin": 2063,
      "##onom": 2064,
      "genç": 2065,
      "çö": 2066,
      "değer": 2067,
      "yerleş": 2068,
      "##lararası": 2069,
      "seçim": 2070,
      "##inci": 2071,
      "##tif": 2072,
      "form": 2073,
      "ölüm": 2074,
      "##şa": 2075,
      "##eleri": 2076,
      "##ros": 2077,
      "##lerle": 2078,
      "##eg": 2079,
      "kim": 2080,
      "kaynak": 2081,
      "destek": 2082,
      "kup": 2083,
      "##ılması": 2084,
      "##iyor": 2085,
      "##üncü": 2086,
      "anlam": 2087,
      "##pan": 2088,
      "önc": 2089,
      "geniş": 2090,
      "kültür": 2091,
      "kuvvet": 2092,
      "yayım": 2093,
      "edildi": 2094,
      "##ırak": 2095,
      "plan": 2096,
      "bağı": 2097,
      "asker": 2098,
      "ren": 2099,
      "günümüz": 2100,
      "##ina": 2101,
      "yor": 2102,
      "özellikle": 2103,
      "elek": 2104,
      "##ici": 2105,
      "ana": 2106,
      "##lanmıştır": 2107,
      "##ly": 2108,
      "##ich": 2109,
      "oğ": 2110,
      "ord": 2111,
      "##asını": 2112,
      "onun": 2113,
      "dört": 2114,
      "mill": 2115,
      "tanım": 2116,
      "temsil": 2117,
      "sek": 2118,
      "##lük": 2119,
      "uluslararası": 2120,
      "arka": 2121,
      "sık": 2122,
      "##can": 2123,
      "yapı": 2124,
      "bırak": 2125,
      "batı": 2126,
      "tip": 2127,
      "din": 2128,
      "gür": 2129,
      "genellikle": 2130,
      "##isinin": 2131,
      "dik": 2132,
      "toplam": 2133,
      "uzaklık": 2134,
      "##üc": 2135,
      "ah": 2136,
      "##ünden": 2137,
      "gi": 2138,
      "kent": 2139,
      "hazır": 2140,
      "##amı": 2141,
      "bulunur": 2142,
      "fransız": 2143,
      "ait": 2144,
      "kara": 2145,
      "altında": 2146,
      "##dık": 2147,
      "deki": 2148,
      "##be": 2149,
      "yı": 2150,
      "##undan": 2151,
      "millî": 2152,
      "dal": 2153,
      "profes": 2154,
      "##isini": 2155,
      "yerine": 2156,
      "i̇mparator": 2157,
      "##cek": 2158,
      "kons": 2159,
      "çağ": 2160,
      "##deş": 2161,
      "ank": 2162,
      "giy": 2163,
      "eyalet": 2164,
      "op": 2165,
      "##kü": 2166,
      "final": 2167,
      "edilen": 2168,
      "başka": 2169,
      "değil": 2170,
      "yunan": 2171,
      "kı": 2172,
      "yaptığı": 2173,
      "söy": 2174,
      "poli": 2175,
      "rağ": 2176,
      "erkek": 2177,
      "##bo": 2178,
      "sıra": 2179,
      "yazar": 2180,
      "anlaş": 2181,
      "almanya": 2182,
      "##ova": 2183,
      "dahil": 2184,
      "rağmen": 2185,
      "##eme": 2186,
      "##ula": 2187,
      "sosyal": 2188,
      "şirket": 2189,
      "mer": 2190,
      "##üsü": 2191,
      "ilgili": 2192,
      "##fi": 2193,
      "bah": 2194,
      "spor": 2195,
      "pat": 2196,
      "seb": 2197,
      "##ug": 2198,
      "mat": 2199,
      "##usunda": 2200,
      "i̇l": 2201,
      "sun": 2202,
      "and": 2203,
      "yür": 2204,
      "gerçekleştir": 2205,
      "mey": 2206,
      "gazet": 2207,
      "ulaş": 2208,
      "##ban": 2209,
      "kol": 2210,
      "th": 2211,
      "tekrar": 2212,
      "bay": 2213,
      "kas": 2214,
      "taşı": 2215,
      "sonuç": 2216,
      "çıktı": 2217,
      "sov": 2218,
      "##gün": 2219,
      "##elik": 2220,
      "ban": 2221,
      "##luğ": 2222,
      "hava": 2223,
      "fransa": 2224,
      "ankara": 2225,
      "olduk": 2226,
      "araştırma": 2227,
      "olması": 2228,
      "konu": 2229,
      "##iyer": 2230,
      "don": 2231,
      "öldür": 2232,
      "##of": 2233,
      "##lığ": 2234,
      "kam": 2235,
      "ten": 2236,
      "mus": 2237,
      "çalı": 2238,
      "yarı": 2239,
      "mode": 2240,
      "jap": 2241,
      "##mayı": 2242,
      "kav": 2243,
      "bat": 2244,
      "bal": 2245,
      "pa": 2246,
      "yönetim": 2247,
      "gönder": 2248,
      "##co": 2249,
      "##isyon": 2250,
      "elektr": 2251,
      "milyon": 2252,
      "olur": 2253,
      "##kan": 2254,
      "sovyet": 2255,
      "ulusal": 2256,
      "nor": 2257,
      "##isine": 2258,
      "new": 2259,
      "##aşa": 2260,
      "kuş": 2261,
      "kem": 2262,
      "çin": 2263,
      "trans": 2264,
      "##abilir": 2265,
      "büt": 2266,
      "çevr": 2267,
      "böyle": 2268,
      "tarihi": 2269,
      "##str": 2270,
      "tr": 2271,
      "parç": 2272,
      "##ye": 2273,
      "toprak": 2274,
      "almıştır": 2275,
      "##eyen": 2276,
      "yüksel": 2277,
      "##ılmaktadır": 2278,
      "cin": 2279,
      "ilişk": 2280,
      "kayı": 2281,
      "##kı": 2282,
      "sını": 2283,
      "##gın": 2284,
      "başkanı": 2285,
      "birliği": 2286,
      "##leti": 2287,
      "geldi": 2288,
      "ür": 2289,
      "elde": 2290,
      "olay": 2291,
      "edilmiştir": 2292,
      "me": 2293,
      "##izm": 2294,
      "kitap": 2295,
      "##ıp": 2296,
      "temel": 2297,
      "oyna": 2298,
      "hiç": 2299,
      "millet": 2300,
      "##ari": 2301,
      "inşa": 2302,
      "##ift": 2303,
      "##pr": 2304,
      "birka": 2305,
      "futbolcu": 2306,
      "##vi": 2307,
      "belirt": 2308,
      "##landa": 2309,
      "mik": 2310,
      "tanı": 2311,
      "sak": 2312,
      "##ver": 2313,
      "güven": 2314,
      "##cade": 2315,
      "##tiv": 2316,
      "sonunda": 2317,
      "ağır": 2318,
      "tasar": 2319,
      "##ind": 2320,
      "mon": 2321,
      "karakter": 2322,
      "amerikan": 2323,
      "öğret": 2324,
      "roman": 2325,
      "cam": 2326,
      "##hi": 2327,
      "ni": 2328,
      "şey": 2329,
      "##lim": 2330,
      "keş": 2331,
      "birkaç": 2332,
      "##din": 2333,
      "benzer": 2334,
      "burada": 2335,
      "ail": 2336,
      "değiştir": 2337,
      "kaç": 2338,
      "katıl": 2339,
      "yapım": 2340,
      "kazandı": 2341,
      "sahiptir": 2342,
      "bağım": 2343,
      "uzaklıktadır": 2344,
      "kardeş": 2345,
      "##bur": 2346,
      "sınıf": 2347,
      "##ğinde": 2348,
      "komut": 2349,
      "bilinen": 2350,
      "hol": 2351,
      "##lendi": 2352,
      "##land": 2353,
      "takımı": 2354,
      "##fade": 2355,
      "şu": 2356,
      "##pe": 2357,
      "ku": 2358,
      "sırada": 2359,
      "##rı": 2360,
      "##gen": 2361,
      "##za": 2362,
      "##baş": 2363,
      "##ana": 2364,
      "sur": 2365,
      "kür": 2366,
      "ordu": 2367,
      "##lamak": 2368,
      "##mal": 2369,
      "itibarı": 2370,
      "yaşında": 2371,
      "adıyla": 2372,
      "hüküm": 2373,
      "yah": 2374,
      "kullanılan": 2375,
      "##gin": 2376,
      "pop": 2377,
      "kitab": 2378,
      "giriş": 2379,
      "##gar": 2380,
      "##ji": 2381,
      "kontr": 2382,
      "ifade": 2383,
      "##izyon": 2384,
      "mec": 2385,
      "roma": 2386,
      "biz": 2387,
      "##uluk": 2388,
      "kariyer": 2389,
      "to": 2390,
      "yine": 2391,
      "tiyat": 2392,
      "altın": 2393,
      "gelir": 2394,
      "wil": 2395,
      "arasındaki": 2396,
      "##yaz": 2397,
      "yıldı": 2398,
      "mücade": 2399,
      "verdi": 2400,
      "ler": 2401,
      "tic": 2402,
      "id": 2403,
      "kut": 2404,
      "##maz": 2405,
      "##gun": 2406,
      "değişik": 2407,
      "##tiği": 2408,
      "sem": 2409,
      "bes": 2410,
      "konuş": 2411,
      "kulüb": 2412,
      "grubu": 2413,
      "yi": 2414,
      "##amak": 2415,
      "yapan": 2416,
      "babası": 2417,
      "##cısı": 2418,
      "oluşan": 2419,
      "beraber": 2420,
      "kıy": 2421,
      "onu": 2422,
      "##umu": 2423,
      "rusya": 2424,
      "##aren": 2425,
      "ho": 2426,
      "i̇span": 2427,
      "men": 2428,
      "##yo": 2429,
      "pet": 2430,
      "##tern": 2431,
      "silah": 2432,
      "mac": 2433,
      "i̇z": 2434,
      "list": 2435,
      "##lerdir": 2436,
      "mas": 2437,
      "##ke": 2438,
      "##larıyla": 2439,
      "##ebilir": 2440,
      "##nek": 2441,
      "##ond": 2442,
      "ham": 2443,
      "##cılı": 2444,
      "##tem": 2445,
      "##ry": 2446,
      "alır": 2447,
      "teknik": 2448,
      "##leyen": 2449,
      "bütün": 2450,
      "çıkan": 2451,
      "yanı": 2452,
      "oğlu": 2453,
      "##bet": 2454,
      "belediye": 2455,
      "aşağı": 2456,
      "ali": 2457,
      "çiz": 2458,
      "neh": 2459,
      "##tesi": 2460,
      "##hn": 2461,
      "okul": 2462,
      "ülke": 2463,
      "yal": 2464,
      "organ": 2465,
      "##cusu": 2466,
      "devr": 2467,
      "fe": 2468,
      "sul": 2469,
      "mahalledir": 2470,
      "cumhuriyeti": 2471,
      "hakkında": 2472,
      "beri": 2473,
      "şehrin": 2474,
      "parça": 2475,
      "##mıştı": 2476,
      "##asyonu": 2477,
      "çift": 2478,
      "car": 2479,
      "##gel": 2480,
      "##ale": 2481,
      "sezonunda": 2482,
      "##umlu": 2483,
      "##to": 2484,
      "çap": 2485,
      "ölç": 2486,
      "##ire": 2487,
      "##dia": 2488,
      "sam": 2489,
      "##ation": 2490,
      "yapmıştır": 2491,
      "müs": 2492,
      "kilis": 2493,
      "etmek": 2494,
      "fran": 2495,
      "savun": 2496,
      "kontrol": 2497,
      "lar": 2498,
      "bağımsız": 2499,
      "##ydı": 2500,
      "koy": 2501,
      "##bak": 2502,
      "##lanır": 2503,
      "##osu": 2504,
      "##ime": 2505,
      "hükû": 2506,
      "proj": 2507,
      "##min": 2508,
      "pek": 2509,
      "hükûmet": 2510,
      "itibaren": 2511,
      "almaktadır": 2512,
      "telev": 2513,
      "##ıcı": 2514,
      "üçüncü": 2515,
      "##emek": 2516,
      "örne": 2517,
      "##manın": 2518,
      "biç": 2519,
      "##med": 2520,
      "##oğlu": 2521,
      "kupası": 2522,
      "##yor": 2523,
      "##tere": 2524,
      "uğ": 2525,
      "rad": 2526,
      "no": 2527,
      "##anan": 2528,
      "##oloji": 2529,
      "adını": 2530,
      "eki": 2531,
      "##esel": 2532,
      "ligi": 2533,
      "paşa": 2534,
      "##ilmesi": 2535,
      "ant": 2536,
      "aday": 2537,
      "arkadaş": 2538,
      "num": 2539,
      "##iyordu": 2540,
      "etmiştir": 2541,
      "kaps": 2542,
      "##okr": 2543,
      "##orn": 2544,
      "##ou": 2545,
      "beyaz": 2546,
      "##sik": 2547,
      "##urt": 2548,
      "##laştır": 2549,
      "val": 2550,
      "dayan": 2551,
      "döneminde": 2552,
      "kah": 2553,
      "üyesi": 2554,
      "amerikalı": 2555,
      "##bah": 2556,
      "kalan": 2557,
      "sonucu": 2558,
      "ra": 2559,
      "##end": 2560,
      "##lanmış": 2561,
      "##uma": 2562,
      "gök": 2563,
      "ış": 2564,
      "devletleri": 2565,
      "ekonom": 2566,
      "bek": 2567,
      "ef": 2568,
      "albümü": 2569,
      "olmayan": 2570,
      "çar": 2571,
      "rek": 2572,
      "görüş": 2573,
      "akade": 2574,
      "mot": 2575,
      "##spor": 2576,
      "eleştir": 2577,
      "afr": 2578,
      "filmi": 2579,
      "anad": 2580,
      "adlandır": 2581,
      "##yonel": 2582,
      "yıldız": 2583,
      "##ışma": 2584,
      "##yalı": 2585,
      "yoğ": 2586,
      "saat": 2587,
      "verilen": 2588,
      "amacı": 2589,
      "##ince": 2590,
      "profesyonel": 2591,
      "televizyon": 2592,
      "cez": 2593,
      "##ize": 2594,
      "##leriyle": 2595,
      "##cağı": 2596,
      "taki": 2597,
      "söyle": 2598,
      "parti": 2599,
      "dolayı": 2600,
      "ann": 2601,
      "arap": 2602,
      "boz": 2603,
      "kayıt": 2604,
      "##ema": 2605,
      "yok": 2606,
      "turn": 2607,
      "##inc": 2608,
      "özellik": 2609,
      "ödülü": 2610,
      "##udi": 2611,
      "##tay": 2612,
      "##bay": 2613,
      "dar": 2614,
      "sonraki": 2615,
      "##asından": 2616,
      "lider": 2617,
      "##int": 2618,
      "meydan": 2619,
      "##laştı": 2620,
      "partisi": 2621,
      "##ala": 2622,
      "i̇talya": 2623,
      "##mesine": 2624,
      "##go": 2625,
      "##qu": 2626,
      "dok": 2627,
      "birbir": 2628,
      "i̇ngiltere": 2629,
      "##liğini": 2630,
      "yat": 2631,
      "ener": 2632,
      "sürdür": 2633,
      "##ii": 2634,
      "##era": 2635,
      "idar": 2636,
      "##aba": 2637,
      "demir": 2638,
      "##ko": 2639,
      "##olojik": 2640,
      "##eral": 2641,
      "##esinden": 2642,
      "##meni": 2643,
      "merkezine": 2644,
      "dışında": 2645,
      "##cut": 2646,
      "edilir": 2647,
      "ki": 2648,
      "düny": 2649,
      "##oğraf": 2650,
      "mücadele": 2651,
      "##uan": 2652,
      "##ehir": 2653,
      "##tin": 2654,
      "##iyan": 2655,
      "model": 2656,
      "yoğun": 2657,
      "port": 2658,
      "##iydi": 2659,
      "azer": 2660,
      "anadolu": 2661,
      "çöz": 2662,
      "tra": 2663,
      "##br": 2664,
      "john": 2665,
      "##alt": 2666,
      "şekl": 2667,
      "##mesini": 2668,
      "##mişti": 2669,
      "ortak": 2670,
      "##üler": 2671,
      "mem": 2672,
      "askeri": 2673,
      "##ğine": 2674,
      "##ıt": 2675,
      "ap": 2676,
      "dönemde": 2677,
      "çoğu": 2678,
      "renk": 2679,
      "##tu": 2680,
      "##ell": 2681,
      "itibarıyla": 2682,
      "vide": 2683,
      "kaldı": 2684,
      "altı": 2685,
      "##sun": 2686,
      "göç": 2687,
      "bor": 2688,
      "çalıştı": 2689,
      "aldığı": 2690,
      "hast": 2691,
      "gem": 2692,
      "dem": 2693,
      "fiz": 2694,
      "##dal": 2695,
      "##lüğ": 2696,
      "sta": 2697,
      "madde": 2698,
      "suç": 2699,
      "kulüp": 2700,
      "##ni": 2701,
      "alı": 2702,
      "##ebil": 2703,
      "##ğın": 2704,
      "ünlü": 2705,
      "fakül": 2706,
      "##sk": 2707,
      "yaygın": 2708,
      "günümüzde": 2709,
      "hemen": 2710,
      "kir": 2711,
      "adam": 2712,
      "içerisinde": 2713,
      "mevcut": 2714,
      "hayvan": 2715,
      "katıldı": 2716,
      "idi": 2717,
      "faal": 2718,
      "##ff": 2719,
      "sol": 2720,
      "##veç": 2721,
      "mark": 2722,
      "buna": 2723,
      "##uştu": 2724,
      "toplum": 2725,
      "mor": 2726,
      "yarat": 2727,
      "inan": 2728,
      "des": 2729,
      "imz": 2730,
      "mim": 2731,
      "küt": 2732,
      "sim": 2733,
      "siv": 2734,
      "##acak": 2735,
      "##ite": 2736,
      "başkan": 2737,
      "##meyi": 2738,
      "mıs": 2739,
      "##ilere": 2740,
      "bağlan": 2741,
      "##ate": 2742,
      "##tık": 2743,
      "##amıştır": 2744,
      "huk": 2745,
      "kale": 2746,
      "yıllarında": 2747,
      "derg": 2748,
      "birinci": 2749,
      "yerel": 2750,
      "teor": 2751,
      "keşf": 2752,
      "örnek": 2753,
      "biçim": 2754,
      "##rist": 2755,
      "oli": 2756,
      "faaliyet": 2757,
      "isimli": 2758,
      "transfer": 2759,
      "mic": 2760,
      "i̇ş": 2761,
      "pol": 2762,
      "hüc": 2763,
      "belediy": 2764,
      "kullanılır": 2765,
      "yönetmen": 2766,
      "ül": 2767,
      "öldü": 2768,
      "fen": 2769,
      "iste": 2770,
      "##ham": 2771,
      "##sen": 2772,
      "##dığını": 2773,
      "hik": 2774,
      "ayak": 2775,
      "nden": 2776,
      "eur": 2777,
      "##pit": 2778,
      "tep": 2779,
      "tanın": 2780,
      "kab": 2781,
      "##ayet": 2782,
      "ülkeler": 2783,
      "##ğına": 2784,
      "hâ": 2785,
      "##üman": 2786,
      "meh": 2787,
      "##vek": 2788,
      "motor": 2789,
      "##doğ": 2790,
      "kuruluş": 2791,
      "kurulan": 2792,
      "##öy": 2793,
      "##mer": 2794,
      "##üldü": 2795,
      "hen": 2796,
      "##mez": 2797,
      "mısır": 2798,
      "özg": 2799,
      "sistemi": 2800,
      "örneğin": 2801,
      "anla": 2802,
      "sch": 2803,
      "böylece": 2804,
      "atan": 2805,
      "fer": 2806,
      "##ons": 2807,
      "şi": 2808,
      "##atör": 2809,
      "başken": 2810,
      "bulundu": 2811,
      "min": 2812,
      "##ğa": 2813,
      "yaşa": 2814,
      "bölümü": 2815,
      "##nız": 2816,
      "##ars": 2817,
      "i̇mparatorluğu": 2818,
      "##suz": 2819,
      "geçen": 2820,
      "tat": 2821,
      "yalnız": 2822,
      "##tur": 2823,
      "yapımı": 2824,
      "he": 2825,
      "çoğun": 2826,
      "resmi": 2827,
      "##müş": 2828,
      "##lenmiştir": 2829,
      "##aka": 2830,
      "##lor": 2831,
      "##asıyla": 2832,
      "ordusu": 2833,
      "sultan": 2834,
      "##dern": 2835,
      "köydür": 2836,
      "##taş": 2837,
      "##lah": 2838,
      "##şta": 2839,
      "bulunduğu": 2840,
      "##masıyla": 2841,
      "##mam": 2842,
      "##uh": 2843,
      "dağı": 2844,
      "##yanın": 2845,
      "##uvar": 2846,
      "i̇ran": 2847,
      "fes": 2848,
      "mahk": 2849,
      "fır": 2850,
      "##teş": 2851,
      "pan": 2852,
      "örg": 2853,
      "dönüş": 2854,
      "##lamıştır": 2855,
      "ağa": 2856,
      "##lidir": 2857,
      "com": 2858,
      "cen": 2859,
      "siyaset": 2860,
      "baz": 2861,
      "etkin": 2862,
      "##ümü": 2863,
      "##ris": 2864,
      "##diler": 2865,
      "##va": 2866,
      "şehri": 2867,
      "sanatçı": 2868,
      "##her": 2869,
      "yolu": 2870,
      "tiyatro": 2871,
      "it": 2872,
      "mağ": 2873,
      "saldırı": 2874,
      "bölgesi": 2875,
      "##kenin": 2876,
      "doğdu": 2877,
      "##iyi": 2878,
      "piyas": 2879,
      "futbolcudur": 2880,
      "poz": 2881,
      "##ledi": 2882,
      "##cılık": 2883,
      "perfor": 2884,
      "metre": 2885,
      "amaç": 2886,
      "yaşayan": 2887,
      "güz": 2888,
      "gelenek": 2889,
      "soy": 2890,
      "ja": 2891,
      "sonuc": 2892,
      "##tığı": 2893,
      "dokt": 2894,
      "park": 2895,
      "dikk": 2896,
      "dair": 2897,
      "hukuk": 2898,
      "müdür": 2899,
      "doktor": 2900,
      "je": 2901,
      "stan": 2902,
      "##rol": 2903,
      "parçası": 2904,
      "yıllık": 2905,
      "dır": 2906,
      "akadem": 2907,
      "##burg": 2908,
      "go": 2909,
      "hey": 2910,
      "yılından": 2911,
      "biridir": 2912,
      "##hangi": 2913,
      "##ilmektedir": 2914,
      "keli": 2915,
      "##uldu": 2916,
      "modern": 2917,
      "##lemek": 2918,
      "kaldır": 2919,
      "##iliği": 2920,
      "araç": 2921,
      "herhangi": 2922,
      "performan": 2923,
      "vur": 2924,
      "##lüğü": 2925,
      "ince": 2926,
      "ona": 2927,
      "##iss": 2928,
      "çat": 2929,
      "red": 2930,
      "lu": 2931,
      "##ong": 2932,
      "sayım": 2933,
      "ayında": 2934,
      "oynadı": 2935,
      "bitir": 2936,
      "sıcak": 2937,
      "##one": 2938,
      "üye": 2939,
      "ürün": 2940,
      "yıllarda": 2941,
      "nas": 2942,
      "##do": 2943,
      "##ansı": 2944,
      "sahibi": 2945,
      "müh": 2946,
      "ste": 2947,
      "edeb": 2948,
      "fel": 2949,
      "siyasi": 2950,
      "##tral": 2951,
      "milletvek": 2952,
      "azerbay": 2953,
      "başarılı": 2954,
      "günü": 2955,
      "##ick": 2956,
      "ilçe": 2957,
      "tor": 2958,
      "nes": 2959,
      "hiçbir": 2960,
      "öğrenc": 2961,
      "formula": 2962,
      "iht": 2963,
      "##ıldığı": 2964,
      "video": 2965,
      "komün": 2966,
      "i̇ngilizce": 2967,
      "paris": 2968,
      "gez": 2969,
      "ülkenin": 2970,
      "kurt": 2971,
      "pay": 2972,
      "##ho": 2973,
      "##esiyle": 2974,
      "ilan": 2975,
      "uygulama": 2976,
      "başlan": 2977,
      "bugün": 2978,
      "dak": 2979,
      "ala": 2980,
      "direk": 2981,
      "süp": 2982,
      "##fe": 2983,
      "##lenir": 2984,
      "kaybet": 2985,
      "ip": 2986,
      "tanrı": 2987,
      "maçta": 2988,
      "afrika": 2989,
      "şiir": 2990,
      "girdi": 2991,
      "yürüt": 2992,
      "yanında": 2993,
      "hale": 2994,
      "tespit": 2995,
      "##gal": 2996,
      "york": 2997,
      "mut": 2998,
      "aile": 2999,
      "##rik": 3000,
      "örgüt": 3001,
      "##dak": 3002,
      "olabilir": 3003,
      "feder": 3004,
      "med": 3005,
      "##ij": 3006,
      "##atan": 3007,
      "iddia": 3008,
      "uygun": 3009,
      "düzenlenen": 3010,
      "##mada": 3011,
      "##alama": 3012,
      "##ie": 3013,
      "dizi": 3014,
      "##öl": 3015,
      "kanal": 3016,
      "başarı": 3017,
      "##rail": 3018,
      "oldukça": 3019,
      "ila": 3020,
      "##onu": 3021,
      "teh": 3022,
      "turnuv": 3023,
      "oran": 3024,
      "##makta": 3025,
      "##lisi": 3026,
      "fizik": 3027,
      "azerbaycan": 3028,
      "##taydı": 3029,
      "##yen": 3030,
      "mezun": 3031,
      "şeklinde": 3032,
      "##rek": 3033,
      "şah": 3034,
      "boş": 3035,
      "forma": 3036,
      "fot": 3037,
      "pen": 3038,
      "türü": 3039,
      "pas": 3040,
      "vardı": 3041,
      "##madan": 3042,
      "bildir": 3043,
      "##azar": 3044,
      "##kop": 3045,
      "si": 3046,
      "sayıda": 3047,
      "##ilerek": 3048,
      "yo": 3049,
      "sey": 3050,
      "ettiği": 3051,
      "##kın": 3052,
      "geçti": 3053,
      "##masının": 3054,
      "ac": 3055,
      "fik": 3056,
      "amp": 3057,
      "yani": 3058,
      "##cağını": 3059,
      "##ladığı": 3060,
      "kamp": 3061,
      "bölgesinde": 3062,
      "alanı": 3063,
      "##ân": 3064,
      "başlayan": 3065,
      "##ilerini": 3066,
      "##deniz": 3067,
      "konser": 3068,
      "##uyu": 3069,
      "##io": 3070,
      "işlem": 3071,
      "##ılım": 3072,
      "haber": 3073,
      "iline": 3074,
      "haline": 3075,
      "bilgi": 3076,
      "bizans": 3077,
      "##edi": 3078,
      "##ktan": 3079,
      "i̇srail": 3080,
      "hit": 3081,
      "demokr": 3082,
      "##omet": 3083,
      "yerleşim": 3084,
      "##arlar": 3085,
      "derece": 3086,
      "##ord": 3087,
      "dis": 3088,
      "cm": 3089,
      "##oli": 3090,
      "gerçekleş": 3091,
      "sezonu": 3092,
      "hes": 3093,
      "cep": 3094,
      "engel": 3095,
      "nit": 3096,
      "##ışı": 3097,
      "sonrasında": 3098,
      "##ısını": 3099,
      "##cılığı": 3100,
      "dö": 3101,
      "köken": 3102,
      "üretim": 3103,
      "##iği": 3104,
      "olimp": 3105,
      "yılına": 3106,
      "başına": 3107,
      "##liam": 3108,
      "güçlü": 3109,
      "hafta": 3110,
      "anlamına": 3111,
      "yazı": 3112,
      "hede": 3113,
      "mö": 3114,
      "sing": 3115,
      "koş": 3116,
      "gider": 3117,
      "##ısıyla": 3118,
      "ismi": 3119,
      "##best": 3120,
      "yüzyılda": 3121,
      "##meden": 3122,
      "rah": 3123,
      "japon": 3124,
      "deney": 3125,
      "##sin": 3126,
      "##ısına": 3127,
      "başlamıştır": 3128,
      "##ere": 3129,
      "kurulu": 3130,
      "i̇ç": 3131,
      "köyün": 3132,
      "güneş": 3133,
      "rap": 3134,
      "##lef": 3135,
      "taşın": 3136,
      "sefer": 3137,
      "süper": 3138,
      "##masında": 3139,
      "kızıl": 3140,
      "festiv": 3141,
      "para": 3142,
      "çün": 3143,
      "düşük": 3144,
      "uyar": 3145,
      "##omo": 3146,
      "tay": 3147,
      "ders": 3148,
      "serbest": 3149,
      "gele": 3150,
      "önceki": 3151,
      "güzel": 3152,
      "i̇talyan": 3153,
      "##ekli": 3154,
      "yaban": 3155,
      "balık": 3156,
      "konusunda": 3157,
      "##itan": 3158,
      "doğal": 3159,
      "vak": 3160,
      "hikâ": 3161,
      "##omb": 3162,
      "milli": 3163,
      "tart": 3164,
      "lim": 3165,
      "çünkü": 3166,
      "##yordu": 3167,
      "yağ": 3168,
      "yav": 3169,
      "i̇yi": 3170,
      "başlangı": 3171,
      "zen": 3172,
      "bakanlığı": 3173,
      "çalışan": 3174,
      "anlat": 3175,
      "##dük": 3176,
      "##po": 3177,
      "etmektedir": 3178,
      "diy": 3179,
      "karşılaş": 3180,
      "başbak": 3181,
      "con": 3182,
      "sit": 3183,
      "sorun": 3184,
      "değildir": 3185,
      "sonucunda": 3186,
      "fakültesi": 3187,
      "bunu": 3188,
      "##form": 3189,
      "bilgis": 3190,
      "##lığını": 3191,
      "sü": 3192,
      "giz": 3193,
      "ekonomik": 3194,
      "galak": 3195,
      "başında": 3196,
      "pren": 3197,
      "amacıyla": 3198,
      "bre": 3199,
      "zar": 3200,
      "yönünde": 3201,
      "sözleş": 3202,
      "##meleri": 3203,
      "oda": 3204,
      "krallık": 3205,
      "##istik": 3206,
      "kaf": 3207,
      "nok": 3208,
      "##şehir": 3209,
      "##ğe": 3210,
      "yık": 3211,
      "##ian": 3212,
      "ziy": 3213,
      "veren": 3214,
      "müsl": 3215,
      "lond": 3216,
      "##medi": 3217,
      "sinema": 3218,
      "hane": 3219,
      "i̇b": 3220,
      "ticaret": 3221,
      "str": 3222,
      "i̇slam": 3223,
      "##ustur": 3224,
      "bilgisay": 3225,
      "kurum": 3226,
      "##ırı": 3227,
      "yöntem": 3228,
      "##ilerine": 3229,
      "göl": 3230,
      "dünyanın": 3231,
      "##lav": 3232,
      "cumhurbaş": 3233,
      "##ısından": 3234,
      "verildi": 3235,
      "##ag": 3236,
      "i̇spanya": 3237,
      "basket": 3238,
      "##üyle": 3239,
      "##su": 3240,
      "cih": 3241,
      "lik": 3242,
      "van": 3243,
      "fir": 3244,
      "hap": 3245,
      "lo": 3246,
      "##yol": 3247,
      "edi": 3248,
      "izin": 3249,
      "##gr": 3250,
      "##ulan": 3251,
      "iken": 3252,
      "##und": 3253,
      "##isidir": 3254,
      "##sidir": 3255,
      "##stit": 3256,
      "##ore": 3257,
      "ism": 3258,
      "seçildi": 3259,
      "mit": 3260,
      "canlandır": 3261,
      "mühend": 3262,
      "kuvvetleri": 3263,
      "dr": 3264,
      "sab": 3265,
      "olmuş": 3266,
      "##dam": 3267,
      "##yum": 3268,
      "##azi": 3269,
      "muhar": 3270,
      "iler": 3271,
      "konum": 3272,
      "##unt": 3273,
      "başlar": 3274,
      "##ene": 3275,
      "adet": 3276,
      "geçer": 3277,
      "japonya": 3278,
      "##mesiyle": 3279,
      "uzay": 3280,
      "##abil": 3281,
      "meydana": 3282,
      "stü": 3283,
      "##ger": 3284,
      "gar": 3285,
      "etkil": 3286,
      "tamamen": 3287,
      "sel": 3288,
      "ven": 3289,
      "sahne": 3290,
      "ateş": 3291,
      "gu": 3292,
      "seslendir": 3293,
      "del": 3294,
      "##tor": 3295,
      "elektrik": 3296,
      "yardımcı": 3297,
      "us": 3298,
      "i̇zmir": 3299,
      "kardeşi": 3300,
      "müslüman": 3301,
      "pap": 3302,
      "dikkat": 3303,
      "ndan": 3304,
      "yayınlanan": 3305,
      "verir": 3306,
      "filmin": 3307,
      "puan": 3308,
      "stüdy": 3309,
      "yalnızca": 3310,
      "kızı": 3311,
      "##des": 3312,
      "ner": 3313,
      "##ülen": 3314,
      "avustur": 3315,
      "##alar": 3316,
      "mimar": 3317,
      "imparator": 3318,
      "orman": 3319,
      "oper": 3320,
      "##kr": 3321,
      "şarkıcı": 3322,
      "edilmiş": 3323,
      "klas": 3324,
      "##masından": 3325,
      "##cık": 3326,
      "##inal": 3327,
      "##dın": 3328,
      "kli": 3329,
      "keşfed": 3330,
      "liste": 3331,
      "##imleri": 3332,
      "##ino": 3333,
      "döndü": 3334,
      "metal": 3335,
      "kariyerine": 3336,
      "##maları": 3337,
      "fon": 3338,
      "şö": 3339,
      "##lanması": 3340,
      "başkanlığı": 3341,
      "##jen": 3342,
      "##laması": 3343,
      "hrist": 3344,
      "##aray": 3345,
      "defa": 3346,
      "##ste": 3347,
      "yapıldı": 3348,
      "ederek": 3349,
      "cumhurbaşk": 3350,
      "nehri": 3351,
      "çarp": 3352,
      "rock": 3353,
      "olacak": 3354,
      "##hat": 3355,
      "##ılabilir": 3356,
      "kanada": 3357,
      "soğ": 3358,
      "olimpiyat": 3359,
      "bile": 3360,
      "##ilerinin": 3361,
      "##ira": 3362,
      "##ows": 3363,
      "yokt": 3364,
      "işlet": 3365,
      "devleti": 3366,
      "##ze": 3367,
      "qu": 3368,
      "asıl": 3369,
      "sona": 3370,
      "piyasaya": 3371,
      "sebeb": 3372,
      "kavram": 3373,
      "zorunda": 3374,
      "senar": 3375,
      "astr": 3376,
      "##liğinde": 3377,
      "def": 3378,
      "##leşti": 3379,
      "nokt": 3380,
      "##onik": 3381,
      "##ıyor": 3382,
      "##mî": 3383,
      "char": 3384,
      "biy": 3385,
      "##ph": 3386,
      "##ustral": 3387,
      "col": 3388,
      "bilinir": 3389,
      "plat": 3390,
      "##üştü": 3391,
      "yana": 3392,
      "##ıntı": 3393,
      "kendisine": 3394,
      "gördü": 3395,
      "üzerinden": 3396,
      "yeş": 3397,
      "bulgar": 3398,
      "i̇lç": 3399,
      "kuruldu": 3400,
      "##rah": 3401,
      "tav": 3402,
      "vatan": 3403,
      "hücre": 3404,
      "ora": 3405,
      "sağlık": 3406,
      "boyut": 3407,
      "içeren": 3408,
      "##lardı": 3409,
      "donan": 3410,
      "yorum": 3411,
      "muhareb": 3412,
      "kısm": 3413,
      "şirk": 3414,
      "edebiyat": 3415,
      "lat": 3416,
      "##iri": 3417,
      "##maktaydı": 3418,
      "mekan": 3419,
      "##vat": 3420,
      "kurdu": 3421,
      "nedenle": 3422,
      "##evi": 3423,
      "kurulmuştur": 3424,
      "şampiyonası": 3425,
      "kullanıl": 3426,
      "##layarak": 3427,
      "hızlı": 3428,
      "kop": 3429,
      "##larındaki": 3430,
      "##fik": 3431,
      "londra": 3432,
      "başlat": 3433,
      "basketbol": 3434,
      "##cel": 3435,
      "standar": 3436,
      "bunlar": 3437,
      "şirketi": 3438,
      "asya": 3439,
      "tv": 3440,
      "uçak": 3441,
      "i̇kinci": 3442,
      "sebep": 3443,
      "yayınlandı": 3444,
      "##asa": 3445,
      "vil": 3446,
      "diş": 3447,
      "grubun": 3448,
      "mur": 3449,
      "hollanda": 3450,
      "sayısı": 3451,
      "##ity": 3452,
      "ekip": 3453,
      "##alıdır": 3454,
      "özgür": 3455,
      "sc": 3456,
      "lit": 3457,
      "##eth": 3458,
      "yarışması": 3459,
      "william": 3460,
      "##zon": 3461,
      "##lilik": 3462,
      "numar": 3463,
      "geleneksel": 3464,
      "avustral": 3465,
      "kısmı": 3466,
      "alarak": 3467,
      "##oks": 3468,
      "musta": 3469,
      "##dem": 3470,
      "terc": 3471,
      "##kün": 3472,
      "direktör": 3473,
      "##esidir": 3474,
      "hedef": 3475,
      "##zil": 3476,
      "gr": 3477,
      "anda": 3478,
      "##amaktadır": 3479,
      "##üle": 3480,
      "ziyaret": 3481,
      "artık": 3482,
      "i̇sveç": 3483,
      "##emiştir": 3484,
      "kendisi": 3485,
      "toplan": 3486,
      "dolay": 3487,
      "##âr": 3488,
      "oluşur": 3489,
      "##etik": 3490,
      "##yüz": 3491,
      "öner": 3492,
      "ke": 3493,
      "mi": 3494,
      "##tika": 3495,
      "##uklu": 3496,
      "i̇ki": 3497,
      "##atür": 3498,
      "nokta": 3499,
      "çevre": 3500,
      "olsa": 3501,
      "kırmı": 3502,
      "##yas": 3503,
      "##taj": 3504,
      "##imini": 3505,
      "day": 3506,
      "etmiş": 3507,
      "##dr": 3508,
      "##ona": 3509,
      "##ograf": 3510,
      "türkçe": 3511,
      "pazar": 3512,
      "suriye": 3513,
      "felse": 3514,
      "aks": 3515,
      "##tiler": 3516,
      "##lenmiş": 3517,
      "tarım": 3518,
      "tasarım": 3519,
      "kış": 3520,
      "pers": 3521,
      "##ısının": 3522,
      "civ": 3523,
      "bilgisayar": 3524,
      "siy": 3525,
      "eyaletinde": 3526,
      "mühendis": 3527,
      "nı": 3528,
      "prot": 3529,
      "##atif": 3530,
      "##emen": 3531,
      "antik": 3532,
      "##bert": 3533,
      "##ision": 3534,
      "enerji": 3535,
      "başkenti": 3536,
      "##mem": 3537,
      "yapmış": 3538,
      "kralı": 3539,
      "tekli": 3540,
      "boğ": 3541,
      "##cılar": 3542,
      "radyo": 3543,
      "prens": 3544,
      "enstit": 3545,
      "##har": 3546,
      "##ınca": 3547,
      "##gc": 3548,
      "fo": 3549,
      "##ekiz": 3550,
      "maçı": 3551,
      "temsilc": 3552,
      "##ılarak": 3553,
      "maçında": 3554,
      "okulu": 3555,
      "cihaz": 3556,
      "olmasına": 3557,
      "##ğinden": 3558,
      "##yken": 3559,
      "sahn": 3560,
      "şim": 3561,
      "galat": 3562,
      "popüler": 3563,
      "mezar": 3564,
      "bro": 3565,
      "vol": 3566,
      "buz": 3567,
      "##ital": 3568,
      "##wa": 3569,
      "çıkış": 3570,
      "politik": 3571,
      "pozisyon": 3572,
      "net": 3573,
      "##ment": 3574,
      "##bek": 3575,
      "##meyen": 3576,
      "düzey": 3577,
      "mir": 3578,
      "##olog": 3579,
      "malz": 3580,
      "macar": 3581,
      "tük": 3582,
      "yüzyılın": 3583,
      "intern": 3584,
      "kötü": 3585,
      "kapsam": 3586,
      "##res": 3587,
      "yum": 3588,
      "yuk": 3589,
      "kork": 3590,
      "##nik": 3591,
      "##kları": 3592,
      "katkı": 3593,
      "sok": 3594,
      "yu": 3595,
      "stüdyo": 3596,
      "ileri": 3597,
      "normal": 3598,
      "hip": 3599,
      "portekiz": 3600,
      "##aj": 3601,
      "gece": 3602,
      "eli": 3603,
      "performans": 3604,
      "##tedir": 3605,
      "yazarı": 3606,
      "##ner": 3607,
      "mos": 3608,
      "bununla": 3609,
      "##dek": 3610,
      "yasa": 3611,
      "işgal": 3612,
      "yahudi": 3613,
      "eg": 3614,
      "yedi": 3615,
      "##arında": 3616,
      "gözlem": 3617,
      "dol": 3618,
      "sk": 3619,
      "yeşil": 3620,
      "gran": 3621,
      "##şık": 3622,
      "dörd": 3623,
      "eşit": 3624,
      "resim": 3625,
      "duyur": 3626,
      "##bin": 3627,
      "wind": 3628,
      "##eydi": 3629,
      "##all": 3630,
      "takip": 3631,
      "versiyon": 3632,
      "davran": 3633,
      "##menin": 3634,
      "single": 3635,
      "##nes": 3636,
      "çan": 3637,
      "birey": 3638,
      "sekiz": 3639,
      "ih": 3640,
      "verdiği": 3641,
      "##iyeti": 3642,
      "müm": 3643,
      "adan": 3644,
      "sunu": 3645,
      "##ilebilir": 3646,
      "yetk": 3647,
      "##culuk": 3648,
      "geor": 3649,
      "saf": 3650,
      "cem": 3651,
      "satış": 3652,
      "organiz": 3653,
      "mustafa": 3654,
      "##eceği": 3655,
      "tim": 3656,
      "bölgede": 3657,
      "avusturya": 3658,
      "eğer": 3659,
      "satın": 3660,
      "kullanıcı": 3661,
      "trab": 3662,
      "##tiş": 3663,
      "##ğunu": 3664,
      "##iforn": 3665,
      "saray": 3666,
      "yabancı": 3667,
      "teda": 3668,
      "dek": 3669,
      "değerlendir": 3670,
      "##and": 3671,
      "ülkede": 3672,
      "sayımına": 3673,
      "##işleri": 3674,
      "aşağıdaki": 3675,
      "ölçü": 3676,
      "##anlık": 3677,
      "çoğunluk": 3678,
      "olabil": 3679,
      "kırmızı": 3680,
      "##we": 3681,
      "aydın": 3682,
      "resmî": 3683,
      "polis": 3684,
      "##lamaya": 3685,
      "kullanım": 3686,
      "çevir": 3687,
      "tipi": 3688,
      "eb": 3689,
      "komp": 3690,
      "hristiyan": 3691,
      "anal": 3692,
      "lib": 3693,
      "##are": 3694,
      "sovyetler": 3695,
      "kitabı": 3696,
      "kanı": 3697,
      "cor": 3698,
      "##undaki": 3699,
      "mehmet": 3700,
      "matem": 3701,
      "fotoğraf": 3702,
      "canlı": 3703,
      "rum": 3704,
      "##ith": 3705,
      "barış": 3706,
      "siyah": 3707,
      "yapılmıştır": 3708,
      "##hane": 3709,
      "hastan": 3710,
      "##ded": 3711,
      "ihtiya": 3712,
      "fener": 3713,
      "karış": 3714,
      "şarkısı": 3715,
      "erken": 3716,
      "hep": 3717,
      "güm": 3718,
      "kum": 3719,
      "##yıldı": 3720,
      "iliş": 3721,
      "pe": 3722,
      "sub": 3723,
      "çalışmaları": 3724,
      "##ang": 3725,
      "ngc": 3726,
      "##ob": 3727,
      "küm": 3728,
      "pak": 3729,
      "##manı": 3730,
      "lisans": 3731,
      "galaksidir": 3732,
      "##omi": 3733,
      "sanay": 3734,
      "beste": 3735,
      "##dikten": 3736,
      "jos": 3737,
      "##th": 3738,
      "kamu": 3739,
      "kendini": 3740,
      "yüzey": 3741,
      "kore": 3742,
      "bakanı": 3743,
      "tok": 3744,
      "yılının": 3745,
      "##isyen": 3746,
      "##ily": 3747,
      "##bon": 3748,
      "ruh": 3749,
      "yör": 3750,
      "pil": 3751,
      "i̇r": 3752,
      "basın": 3753,
      "cev": 3754,
      "zengin": 3755,
      "##lesi": 3756,
      "bileş": 3757,
      "güvenlik": 3758,
      "yahud": 3759,
      "jam": 3760,
      "alanında": 3761,
      "adına": 3762,
      "karşısında": 3763,
      "belirli": 3764,
      "fre": 3765,
      "##ülü": 3766,
      "şehirdir": 3767,
      "meclis": 3768,
      "oyunu": 3769,
      "bunların": 3770,
      "sonrası": 3771,
      "stady": 3772,
      "##aması": 3773,
      "fam": 3774,
      "kazanan": 3775,
      "gre": 3776,
      "tör": 3777,
      "hesap": 3778,
      "psik": 3779,
      "##dikleri": 3780,
      "yönelik": 3781,
      "dünyaya": 3782,
      "##üst": 3783,
      "##laya": 3784,
      "##ert": 3785,
      "bazen": 3786,
      "savunma": 3787,
      "ark": 3788,
      "köpr": 3789,
      "içerir": 3790,
      "vatandaş": 3791,
      "##itesi": 3792,
      "fab": 3793,
      "##kar": 3794,
      "sürekli": 3795,
      "emir": 3796,
      "ortalama": 3797,
      "i̇spanyol": 3798,
      "##alim": 3799,
      "##nam": 3800,
      "emek": 3801,
      "teş": 3802,
      "arası": 3803,
      "antlaş": 3804,
      "um": 3805,
      "tanıt": 3806,
      "ep": 3807,
      "tıp": 3808,
      "gazete": 3809,
      "söyledi": 3810,
      "dördüncü": 3811,
      "fi": 3812,
      "milletvekili": 3813,
      "avustralya": 3814,
      "stat": 3815,
      "annesi": 3816,
      "sayesinde": 3817,
      "meş": 3818,
      "ob": 3819,
      "mümkün": 3820,
      "yunanistan": 3821,
      "##ısız": 3822,
      "erz": 3823,
      "orij": 3824,
      "kesin": 3825,
      "isti": 3826,
      "##uluğu": 3827,
      "klasik": 3828,
      "karşılık": 3829,
      "##kel": 3830,
      "windows": 3831,
      "##ğından": 3832,
      "ayrıldı": 3833,
      "ayır": 3834,
      "açı": 3835,
      "dü": 3836,
      "kıbr": 3837,
      "sarı": 3838,
      "##bahçe": 3839,
      "##arken": 3840,
      "tarihli": 3841,
      "##asaray": 3842,
      "kıbrıs": 3843,
      "şid": 3844,
      "##bat": 3845,
      "katal": 3846,
      "ton": 3847,
      "ordus": 3848,
      "##may": 3849,
      "vir": 3850,
      "polonya": 3851,
      "galatasaray": 3852,
      "##ıştır": 3853,
      "##liğe": 3854,
      "yoktur": 3855,
      "play": 3856,
      "ermeni": 3857,
      "hind": 3858,
      "##ırlar": 3859,
      "##berg": 3860,
      "##dıkları": 3861,
      "edilmektedir": 3862,
      "diye": 3863,
      "şa": 3864,
      "seri": 3865,
      "yazdığı": 3866,
      "yılın": 3867,
      "##uyor": 3868,
      "##ts": 3869,
      "##uyordu": 3870,
      "başlangıç": 3871,
      "##altı": 3872,
      "madal": 3873,
      "anay": 3874,
      "tale": 3875,
      "##ölç": 3876,
      "hakim": 3877,
      "ale": 3878,
      "politika": 3879,
      "sap": 3880,
      "##ğinin": 3881,
      "halinde": 3882,
      "##ung": 3883,
      "ga": 3884,
      "yerli": 3885,
      "kişinin": 3886,
      "web": 3887,
      "yurt": 3888,
      "##mesinden": 3889,
      "##lılık": 3890,
      "hikây": 3891,
      "siyasetçi": 3892,
      "şar": 3893,
      "tahmin": 3894,
      "##ight": 3895,
      "hastalık": 3896,
      "dam": 3897,
      "du": 3898,
      "vo": 3899,
      "ir": 3900,
      "tamamladı": 3901,
      "miktar": 3902,
      "oyuncusu": 3903,
      "korum": 3904,
      "serg": 3905,
      "bol": 3906,
      "##lanma": 3907,
      "##ildiği": 3908,
      "kanun": 3909,
      "gösterir": 3910,
      "nik": 3911,
      "matematik": 3912,
      "değişiklik": 3913,
      "üzerindeki": 3914,
      "##rid": 3915,
      "konusu": 3916,
      "bakım": 3917,
      "yüzölç": 3918,
      "arab": 3919,
      "takımyıldı": 3920,
      "ışık": 3921,
      "##ata": 3922,
      "parlam": 3923,
      "görüntü": 3924,
      "kulübü": 3925,
      "yapmak": 3926,
      "##teki": 3927,
      "kuşat": 3928,
      "ker": 3929,
      "hanedan": 3930,
      "birim": 3931,
      "##mür": 3932,
      "tap": 3933,
      "kazanmıştır": 3934,
      "britan": 3935,
      "##lov": 3936,
      "öy": 3937,
      "öğretmen": 3938,
      "derin": 3939,
      "sanatç": 3940,
      "mag": 3941,
      "##diş": 3942,
      "hatta": 3943,
      "alındı": 3944,
      "ilçesinde": 3945,
      "yeti": 3946,
      "mc": 3947,
      "iii": 3948,
      "doğum": 3949,
      "##ato": 3950,
      "geçmiş": 3951,
      "standart": 3952,
      "altına": 3953,
      "oynanan": 3954,
      "arn": 3955,
      "hır": 3956,
      "süreç": 3957,
      "sava": 3958,
      "yeri": 3959,
      "benz": 3960,
      "raki": 3961,
      "katılım": 3962,
      "##ac": 3963,
      "##sh": 3964,
      "##endi": 3965,
      "##liy": 3966,
      "brezil": 3967,
      "nerede": 3968,
      "general": 3969,
      "belg": 3970,
      "eriş": 3971,
      "yukarı": 3972,
      "fenerbahçe": 3973,
      "saha": 3974,
      "bölümünde": 3975,
      "hindistan": 3976,
      "mahkem": 3977,
      "yanlı": 3978,
      "ağaç": 3979,
      "trabzon": 3980,
      "muham": 3981,
      "kurulmuş": 3982,
      "kolay": 3983,
      "yerleştir": 3984,
      "orijinal": 3985,
      "kişilik": 3986,
      "kurtar": 3987,
      "taşıyan": 3988,
      "dili": 3989,
      "i̇k": 3990,
      "##mon": 3991,
      "ortam": 3992,
      "kıyı": 3993,
      "##ens": 3994,
      "idari": 3995,
      "tu": 3996,
      "##viç": 3997,
      "##ice": 3998,
      "yazdı": 3999,
      "görevi": 4000,
      "kaliforn": 4001,
      "yönetimi": 4002,
      "durumda": 4003,
      "gelmiştir": 4004,
      "##ücü": 4005,
      "uğra": 4006,
      "endü": 4007,
      "test": 4008,
      "çıkmıştır": 4009,
      "pot": 4010,
      "ros": 4011,
      "ss": 4012,
      "köyü": 4013,
      "##fek": 4014,
      "aj": 4015,
      "##tion": 4016,
      "kendisini": 4017,
      "eurov": 4018,
      "otur": 4019,
      "gösteren": 4020,
      "astronom": 4021,
      "üniversite": 4022,
      "hid": 4023,
      "indir": 4024,
      "##ita": 4025,
      "##diğini": 4026,
      "##lıkla": 4027,
      "##egor": 4028,
      "öne": 4029,
      "ermen": 4030,
      "sırasıyla": 4031,
      "samsun": 4032,
      "doğrudan": 4033,
      "teki": 4034,
      "##mesinin": 4035,
      "komünist": 4036,
      "gül": 4037,
      "##alığı": 4038,
      "eurovision": 4039,
      "##meler": 4040,
      "attı": 4041,
      "##yse": 4042,
      "teles": 4043,
      "doğr": 4044,
      "duvar": 4045,
      "tarz": 4046,
      "birleştir": 4047,
      "telef": 4048,
      "asl": 4049,
      "##yn": 4050,
      "##izi": 4051,
      "rast": 4052,
      "##ıyordu": 4053,
      "##isel": 4054,
      "eşi": 4055,
      "cins": 4056,
      "dip": 4057,
      "kaliforniya": 4058,
      "##isinden": 4059,
      "bilimsel": 4060,
      "##çiler": 4061,
      "açıkladı": 4062,
      "çoğunlukla": 4063,
      "pal": 4064,
      "albümün": 4065,
      "profesör": 4066,
      "diren": 4067,
      "terk": 4068,
      "yıllar": 4069,
      "yapıl": 4070,
      "bis": 4071,
      "##elerinin": 4072,
      "kategor": 4073,
      "##ırken": 4074,
      "adında": 4075,
      "gürcü": 4076,
      "##eceğini": 4077,
      "arkadaşı": 4078,
      "ata": 4079,
      "azal": 4080,
      "irak": 4081,
      "pi": 4082,
      "nasıl": 4083,
      "not": 4084,
      "otomo": 4085,
      "kabil": 4086,
      "tercih": 4087,
      "##rad": 4088,
      "##yı": 4089,
      "bundan": 4090,
      "etraf": 4091,
      "kullanarak": 4092,
      "başrol": 4093,
      "gitti": 4094,
      "nak": 4095,
      "hor": 4096,
      "ukr": 4097,
      "süren": 4098,
      "aktif": 4099,
      "meclisi": 4100,
      "yapmaktadır": 4101,
      "##liğine": 4102,
      "kurucu": 4103,
      "deste": 4104,
      "berlin": 4105,
      "##edik": 4106,
      "##teydi": 4107,
      "##uli": 4108,
      "##iyel": 4109,
      "şiddet": 4110,
      "ukray": 4111,
      "##lanmaktadır": 4112,
      "##dılar": 4113,
      "liv": 4114,
      "doğan": 4115,
      "takımyıldızı": 4116,
      "##ksiyon": 4117,
      "##cistan": 4118,
      "kaya": 4119,
      "##uru": 4120,
      "##ura": 4121,
      "tarihleri": 4122,
      "##ıma": 4123,
      "etkili": 4124,
      "kadınlar": 4125,
      "coğraf": 4126,
      "##mışlardır": 4127,
      "ex": 4128,
      "##iminde": 4129,
      "dolayısıyla": 4130,
      "rapor": 4131,
      "##ındır": 4132,
      "ıs": 4133,
      "görülür": 4134,
      "kısım": 4135,
      "oluştu": 4136,
      "etmeye": 4137,
      "fr": 4138,
      "##hael": 4139,
      "çocuğu": 4140,
      "iy": 4141,
      "##lediği": 4142,
      "hükümdar": 4143,
      "sağlar": 4144,
      "bank": 4145,
      "madalya": 4146,
      "##ifa": 4147,
      "ölçüde": 4148,
      "##çlı": 4149,
      "vi": 4150,
      "dans": 4151,
      "inç": 4152,
      "kanıt": 4153,
      "gökyüz": 4154,
      "koşul": 4155,
      "i̇sviç": 4156,
      "ahmet": 4157,
      "kullanılmaktadır": 4158,
      "etme": 4159,
      "başta": 4160,
      "##esindeki": 4161,
      "gelmektedir": 4162,
      "fat": 4163,
      "##efa": 4164,
      "##taki": 4165,
      "muhammed": 4166,
      "##gue": 4167,
      "enstitüsü": 4168,
      "tom": 4169,
      "kasab": 4170,
      "başkanlı": 4171,
      "gürcistan": 4172,
      "i̇nsan": 4173,
      "mm": 4174,
      "ettir": 4175,
      "mül": 4176,
      "##usal": 4177,
      "##ash": 4178,
      "fonksiyon": 4179,
      "aslında": 4180,
      "devrim": 4181,
      "##yar": 4182,
      "yılındaki": 4183,
      "çaplı": 4184,
      "i̇sviçre": 4185,
      "##per": 4186,
      "##isa": 4187,
      "kör": 4188,
      "üs": 4189,
      "##emektedir": 4190,
      "##my": 4191,
      "##net": 4192,
      "dönemi": 4193,
      "mekt": 4194,
      "mosk": 4195,
      "verilmiştir": 4196,
      "##ef": 4197,
      "##emin": 4198,
      "yerini": 4199,
      "çi": 4200,
      "korun": 4201,
      "sabit": 4202,
      "parlament": 4203,
      "##okal": 4204,
      "geçiş": 4205,
      "açısından": 4206,
      "yenil": 4207,
      "söyler": 4208,
      "##sam": 4209,
      "kalı": 4210,
      "eğitimi": 4211,
      "düşünül": 4212,
      "ceza": 4213,
      "##zi": 4214,
      "yeter": 4215,
      "keşfedilmiştir": 4216,
      "evli": 4217,
      "gizli": 4218,
      "güc": 4219,
      "finalde": 4220,
      "başlı": 4221,
      "gümüş": 4222,
      "sosyalist": 4223,
      "count": 4224,
      "kapat": 4225,
      "şehrinde": 4226,
      "oluşturur": 4227,
      "##lenme": 4228,
      "kararı": 4229,
      "kurtul": 4230,
      "##cret": 4231,
      "yetiştir": 4232,
      "takımın": 4233,
      "seviy": 4234,
      "kemal": 4235,
      "derne": 4236,
      "##cil": 4237,
      "bet": 4238,
      "##udu": 4239,
      "##şte": 4240,
      "##enek": 4241,
      "evren": 4242,
      "lisesi": 4243,
      "dönemin": 4244,
      "tun": 4245,
      "kullanılmıştır": 4246,
      "filmde": 4247,
      "uefa": 4248,
      "##ood": 4249,
      "##eld": 4250,
      "ters": 4251,
      "bl": 4252,
      "unvan": 4253,
      "ödülleri": 4254,
      "tel": 4255,
      "bina": 4256,
      "hüs": 4257,
      "##pa": 4258,
      "##raman": 4259,
      "etkilen": 4260,
      "yarar": 4261,
      "bulunmuştur": 4262,
      "denk": 4263,
      "##erkes": 4264,
      "adamı": 4265,
      "görevini": 4266,
      "kaydet": 4267,
      "hayatını": 4268,
      "benim": 4269,
      "paul": 4270,
      "iv": 4271,
      "dağıt": 4272,
      "enerj": 4273,
      "edin": 4274,
      "dom": 4275,
      "işaret": 4276,
      "teleskop": 4277,
      "##mayan": 4278,
      "sivil": 4279,
      "##lerce": 4280,
      "krallığı": 4281,
      "sınırları": 4282,
      "james": 4283,
      "kürt": 4284,
      "jan": 4285,
      "##teri": 4286,
      "##lığına": 4287,
      "hac": 4288,
      "yetiş": 4289,
      "michael": 4290,
      "tutuk": 4291,
      "yasak": 4292,
      "beşik": 4293,
      "##ney": 4294,
      "##ette": 4295,
      "yüzden": 4296,
      "etkisi": 4297,
      "yavaş": 4298,
      "dalga": 4299,
      "##ele": 4300,
      "bla": 4301,
      "eylem": 4302,
      "##nan": 4303,
      "##lenmesi": 4304,
      "dizisi": 4305,
      "festivali": 4306,
      "üretilen": 4307,
      "##onomi": 4308,
      "gitar": 4309,
      "kural": 4310,
      "##ess": 4311,
      "ticari": 4312,
      "i̇st": 4313,
      "kök": 4314,
      "##uri": 4315,
      "vermiştir": 4316,
      "ailesi": 4317,
      "my": 4318,
      "neredeyse": 4319,
      "sm": 4320,
      "fc": 4321,
      "yemek": 4322,
      "##oni": 4323,
      "robert": 4324,
      "yazılım": 4325,
      "david": 4326,
      "cumhurbaşkanı": 4327,
      "hers": 4328,
      "hala": 4329,
      "moskova": 4330,
      "takımında": 4331,
      "##ill": 4332,
      "##elt": 4333,
      "##ılımı": 4334,
      "çatışma": 4335,
      "##eyn": 4336,
      "süt": 4337,
      "karma": 4338,
      "kahraman": 4339,
      "##amaya": 4340,
      "##ılacak": 4341,
      "uzman": 4342,
      "##ündeki": 4343,
      "##çisi": 4344,
      "yaşadığı": 4345,
      "hâl": 4346,
      "orada": 4347,
      "belli": 4348,
      "##ise": 4349,
      "##avut": 4350,
      "jack": 4351,
      "i̇rlanda": 4352,
      "##amaz": 4353,
      "##yap": 4354,
      "programı": 4355,
      "##raz": 4356,
      "yayınladı": 4357,
      "##imler": 4358,
      "##şı": 4359,
      "##antin": 4360,
      "##doğu": 4361,
      "şair": 4362,
      "ins": 4363,
      "muhaf": 4364,
      "cer": 4365,
      "mevcuttur": 4366,
      "arj": 4367,
      "lev": 4368,
      "dışı": 4369,
      "müziği": 4370,
      "metin": 4371,
      "##say": 4372,
      "sağlayan": 4373,
      "zaf": 4374,
      "derec": 4375,
      "kutsal": 4376,
      "wor": 4377,
      "yapılmış": 4378,
      "özer": 4379,
      "##mar": 4380,
      "dokuz": 4381,
      "##ny": 4382,
      "##madı": 4383,
      "giren": 4384,
      "far": 4385,
      "##tiğini": 4386,
      "kapas": 4387,
      "kütüp": 4388,
      "##asya": 4389,
      "çay": 4390,
      "basit": 4391,
      "alınan": 4392,
      "denir": 4393,
      "uçuş": 4394,
      "geçirdi": 4395,
      "arnavut": 4396,
      "rak": 4397,
      "county": 4398,
      "bitk": 4399,
      "mesaf": 4400,
      "etkinlik": 4401,
      "##yası": 4402,
      "alf": 4403,
      "##red": 4404,
      "kuzeyinde": 4405,
      "tehlik": 4406,
      "zarar": 4407,
      "teknoloj": 4408,
      "öğretim": 4409,
      "##sim": 4410,
      "##au": 4411,
      "##dit": 4412,
      "yapılır": 4413,
      "paylaş": 4414,
      "tüket": 4415,
      "##üyor": 4416,
      "##ester": 4417,
      "dini": 4418,
      "düşman": 4419,
      "serv": 4420,
      "türkç": 4421,
      "koruma": 4422,
      "rahat": 4423,
      "##ori": 4424,
      "##lamaktadır": 4425,
      "##omatik": 4426,
      "günlük": 4427,
      "##no": 4428,
      "oynadığı": 4429,
      "sert": 4430,
      "dram": 4431,
      "##sas": 4432,
      "otomobil": 4433,
      "inc": 4434,
      "lı": 4435,
      "götür": 4436,
      "##ington": 4437,
      "##ılığı": 4438,
      "##malar": 4439,
      "##ilerde": 4440,
      "##pt": 4441,
      "bura": 4442,
      "boğaz": 4443,
      "##ğının": 4444,
      "kayna": 4445,
      "##dat": 4446,
      "okyan": 4447,
      "sözleşme": 4448,
      "##sch": 4449,
      "hafif": 4450,
      "şöyle": 4451,
      "los": 4452,
      "niş": 4453,
      "##bm": 4454,
      "nün": 4455,
      "bursa": 4456,
      "##rosu": 4457,
      "##anlar": 4458,
      "ic": 4459,
      "we": 4460,
      "çer": 4461,
      "katalog": 4462,
      "##amış": 4463,
      "onay": 4464,
      "sonradan": 4465,
      "baskı": 4466,
      "##ille": 4467,
      "aktar": 4468,
      "yönetic": 4469,
      "ulaştı": 4470,
      "##tidar": 4471,
      "##ano": 4472,
      "##pek": 4473,
      "beşiktaş": 4474,
      "durumu": 4475,
      "yaşamak": 4476,
      "sorumlu": 4477,
      "##lıdır": 4478,
      "gelecek": 4479,
      "tal": 4480,
      "bazıları": 4481,
      "teslim": 4482,
      "flor": 4483,
      "kemer": 4484,
      "akdeniz": 4485,
      "fikir": 4486,
      "odak": 4487,
      "##ola": 4488,
      "##ceği": 4489,
      "almak": 4490,
      "onları": 4491,
      "şarkının": 4492,
      "içine": 4493,
      "egemen": 4494,
      "ölmüştür": 4495,
      "akım": 4496,
      "##ult": 4497,
      "dep": 4498,
      "##cının": 4499,
      "##elerde": 4500,
      "üyeleri": 4501,
      "arjantin": 4502,
      "aracılığı": 4503,
      "kendine": 4504,
      "kökenli": 4505,
      "leh": 4506,
      "##urum": 4507,
      "ray": 4508,
      "baba": 4509,
      "belç": 4510,
      "bahs": 4511,
      "isyan": 4512,
      "ukrayna": 4513,
      "takımının": 4514,
      "sağlamak": 4515,
      "dakika": 4516,
      "##ılabil": 4517,
      "içindeki": 4518,
      "naz": 4519,
      "##imli": 4520,
      "wh": 4521,
      "##car": 4522,
      "##asi": 4523,
      "telefon": 4524,
      "ceph": 4525,
      "##ükle": 4526,
      "kulübünde": 4527,
      "tuz": 4528,
      "i̇lçenin": 4529,
      "selç": 4530,
      "yerde": 4531,
      "##düğü": 4532,
      "genelde": 4533,
      "oluşturul": 4534,
      "hükûmeti": 4535,
      "heykel": 4536,
      "yayımlanan": 4537,
      "olmadığı": 4538,
      "kans": 4539,
      "bilinmektedir": 4540,
      "çekir": 4541,
      "seviye": 4542,
      "ağırlık": 4543,
      "ücret": 4544,
      "fifa": 4545,
      "teşk": 4546,
      "kültürel": 4547,
      "oynan": 4548,
      "almış": 4549,
      "##liğin": 4550,
      "##aladı": 4551,
      "##isiyle": 4552,
      "sup": 4553,
      "silahlı": 4554,
      "kaynağı": 4555,
      "bill": 4556,
      "##çak": 4557,
      "muhtem": 4558,
      "yardımcısı": 4559,
      "tartış": 4560,
      "##ruz": 4561,
      "başlarında": 4562,
      "sürüm": 4563,
      "kod": 4564,
      "nu": 4565,
      "kullanıldı": 4566,
      "##rat": 4567,
      "##gre": 4568,
      "cal": 4569,
      "lan": 4570,
      "çapında": 4571,
      "ces": 4572,
      "araya": 4573,
      "ur": 4574,
      "##oft": 4575,
      "air": 4576,
      "düşünce": 4577,
      "göstermektedir": 4578,
      "britanya": 4579,
      "rec": 4580,
      "teşkil": 4581,
      "cid": 4582,
      "henüz": 4583,
      "kilise": 4584,
      "pla": 4585,
      "##ilerden": 4586,
      "family": 4587,
      "lerin": 4588,
      "şampiyonu": 4589,
      "##ştan": 4590,
      "##ucu": 4591,
      "##ld": 4592,
      "##ski": 4593,
      "yaptır": 4594,
      "açtı": 4595,
      "atandı": 4596,
      "ölümünden": 4597,
      "frank": 4598,
      "konfer": 4599,
      "terim": 4600,
      "##ât": 4601,
      "işlev": 4602,
      "sebebiyle": 4603,
      "tören": 4604,
      "lak": 4605,
      "##ford": 4606,
      "babasının": 4607,
      "evr": 4608,
      "moğ": 4609,
      "dönüştür": 4610,
      "sağladı": 4611,
      "##iro": 4612,
      "wal": 4613,
      "##ani": 4614,
      "çalışmalar": 4615,
      "ez": 4616,
      "##imiz": 4617,
      "rö": 4618,
      "veri": 4619,
      "cas": 4620,
      "gökyüzünde": 4621,
      "prob": 4622,
      "div": 4623,
      "gücü": 4624,
      "##çev": 4625,
      "fu": 4626,
      "phil": 4627,
      "açıklama": 4628,
      "hakkı": 4629,
      "##ife": 4630,
      "belediyesi": 4631,
      "##wn": 4632,
      "fiziksel": 4633,
      "bitki": 4634,
      "sektör": 4635,
      "topluluk": 4636,
      "esas": 4637,
      "##yasal": 4638,
      "##daly": 4639,
      "vokal": 4640,
      "##ınar": 4641,
      "##olik": 4642,
      "yarışma": 4643,
      "##çu": 4644,
      "araz": 4645,
      "ilgi": 4646,
      "kanat": 4647,
      "##isar": 4648,
      "maden": 4649,
      "##iyade": 4650,
      "cinsel": 4651,
      "başarısız": 4652,
      "##ayıf": 4653,
      "antr": 4654,
      "rich": 4655,
      "##başı": 4656,
      "komş": 4657,
      "##rop": 4658,
      "kilomet": 4659,
      "kilisesi": 4660,
      "ca": 4661,
      "iktidar": 4662,
      "biçimde": 4663,
      "endüstr": 4664,
      "##tılı": 4665,
      "rekor": 4666,
      "##fet": 4667,
      "alanda": 4668,
      "ekran": 4669,
      "ag": 4670,
      "##dıktan": 4671,
      "tank": 4672,
      "##ırım": 4673,
      "bölün": 4674,
      "##ron": 4675,
      "##cası": 4676,
      "özerk": 4677,
      "##tte": 4678,
      "kılı": 4679,
      "akademisi": 4680,
      "derneği": 4681,
      "##abet": 4682,
      "birinc": 4683,
      "insanların": 4684,
      "antal": 4685,
      "akıl": 4686,
      "hasta": 4687,
      "bos": 4688,
      "öncesi": 4689,
      "##mişlerdir": 4690,
      "zayıf": 4691,
      "nüfusunun": 4692,
      "kazak": 4693,
      "mağlu": 4694,
      "yayımlandı": 4695,
      "iletiş": 4696,
      "öde": 4697,
      "plak": 4698,
      "##ecektir": 4699,
      "yükseldi": 4700,
      "türkmen": 4701,
      "ır": 4702,
      "teleskopla": 4703,
      "kâ": 4704,
      "sanayi": 4705,
      "##üstü": 4706,
      "##lığa": 4707,
      "ilçesi": 4708,
      "##ağa": 4709,
      "ndeki": 4710,
      "şart": 4711,
      "##lemi": 4712,
      "ange": 4713,
      "katı": 4714,
      "atom": 4715,
      "internet": 4716,
      "davranış": 4717,
      "##lardaki": 4718,
      "yoluyla": 4719,
      "micros": 4720,
      "ayrıl": 4721,
      "##ling": 4722,
      "##lili": 4723,
      "##ion": 4724,
      "##fat": 4725,
      "kole": 4726,
      "peter": 4727,
      "##kân": 4728,
      "##ela": 4729,
      "ris": 4730,
      "bağlantı": 4731,
      "gezeg": 4732,
      "ilgilen": 4733,
      "platform": 4734,
      "dük": 4735,
      "kalmıştır": 4736,
      "##leyman": 4737,
      "denet": 4738,
      "belge": 4739,
      "##mur": 4740,
      "kart": 4741,
      "brezilya": 4742,
      "yapmaya": 4743,
      "anti": 4744,
      "hapis": 4745,
      "şun": 4746,
      "##ğan": 4747,
      "makine": 4748,
      "oranı": 4749,
      "artır": 4750,
      "eseri": 4751,
      "geril": 4752,
      "müdürlüğü": 4753,
      "##malı": 4754,
      "##üny": 4755,
      "##hal": 4756,
      "alex": 4757,
      "tane": 4758,
      "askerî": 4759,
      "güreş": 4760,
      "listesinde": 4761,
      "bara": 4762,
      "yaşan": 4763,
      "prote": 4764,
      "istem": 4765,
      "sayılı": 4766,
      "##var": 4767,
      "havalim": 4768,
      "büyükel": 4769,
      "edilmesi": 4770,
      "##ciler": 4771,
      "çalışmaya": 4772,
      "tir": 4773,
      "##bel": 4774,
      "eyaleti": 4775,
      "süleyman": 4776,
      "oluştuğu": 4777,
      "çizgi": 4778,
      "bomb": 4779,
      "norveç": 4780,
      "sy": 4781,
      "alg": 4782,
      "##dim": 4783,
      "fars": 4784,
      "malzem": 4785,
      "arada": 4786,
      "dost": 4787,
      "oyunları": 4788,
      "macaristan": 4789,
      "dipl": 4790,
      "zir": 4791,
      "geçmektedir": 4792,
      "##ğünü": 4793,
      "arapça": 4794,
      "vek": 4795,
      "öldürül": 4796,
      "mel": 4797,
      "güneyinde": 4798,
      "oluşturan": 4799,
      "##eyle": 4800,
      "pir": 4801,
      "konstan": 4802,
      "##ple": 4803,
      "oluşmaktadır": 4804,
      "hükümet": 4805,
      "sig": 4806,
      "vad": 4807,
      "##ayla": 4808,
      "müzesi": 4809,
      "aşırı": 4810,
      "##ruk": 4811,
      "##los": 4812,
      "yere": 4813,
      "tren": 4814,
      "##öz": 4815,
      "##ena": 4816,
      "##atürk": 4817,
      "est": 4818,
      "lab": 4819,
      "##layıcı": 4820,
      "toplamda": 4821,
      "dos": 4822,
      "##cilik": 4823,
      "aşk": 4824,
      "büyüm": 4825,
      "##bar": 4826,
      "dışişleri": 4827,
      "sekret": 4828,
      "ihtiyaç": 4829,
      "##ısal": 4830,
      "ork": 4831,
      "açıl": 4832,
      "teklif": 4833,
      "##ima": 4834,
      "kayded": 4835,
      "olmadığını": 4836,
      "molek": 4837,
      "sürec": 4838,
      "##ps": 4839,
      "##labilir": 4840,
      "civarında": 4841,
      "bunlardan": 4842,
      "##use": 4843,
      "getirildi": 4844,
      "##mamış": 4845,
      "onur": 4846,
      "gam": 4847,
      "##cisi": 4848,
      "ertesi": 4849,
      "##don": 4850,
      "ilet": 4851,
      "üstün": 4852,
      "sivas": 4853,
      "city": 4854,
      "lou": 4855,
      "fransızca": 4856,
      "atı": 4857,
      "##leyerek": 4858,
      "emekli": 4859,
      "yargı": 4860,
      "atatürk": 4861,
      "hasan": 4862,
      "##mekteydi": 4863,
      "thom": 4864,
      "girişim": 4865,
      "##lemesi": 4866,
      "##alandı": 4867,
      "ressam": 4868,
      "durdur": 4869,
      "anne": 4870,
      "sınıflandır": 4871,
      "##yetik": 4872,
      "pozisyonunda": 4873,
      "köş": 4874,
      "##rahim": 4875,
      "vaz": 4876,
      "##ica": 4877,
      "##sika": 4878,
      "soğuk": 4879,
      "buldu": 4880,
      "esn": 4881,
      "başv": 4882,
      "##lendiği": 4883,
      "karadeniz": 4884,
      "lerde": 4885,
      "filminde": 4886,
      "##mo": 4887,
      "##ish": 4888,
      "sene": 4889,
      "hel": 4890,
      "altyap": 4891,
      "gerekli": 4892,
      "mün": 4893,
      "##irler": 4894,
      "yapar": 4895,
      "yaptık": 4896,
      "kişisel": 4897,
      "bon": 4898,
      "george": 4899,
      "##lenin": 4900,
      "##rafik": 4901,
      "microsoft": 4902,
      "##ılıp": 4903,
      "aracılığıyla": 4904,
      "lin": 4905,
      "##ague": 4906,
      "tbm": 4907,
      "tır": 4908,
      "bölgesine": 4909,
      "ph": 4910,
      "##larıdır": 4911,
      "varlık": 4912,
      "bask": 4913,
      "tez": 4914,
      "##kale": 4915,
      "müzi": 4916,
      "kasaba": 4917,
      "##stein": 4918,
      "##tepe": 4919,
      "yılda": 4920,
      "hareketi": 4921,
      "##erler": 4922,
      "##elerinde": 4923,
      "finans": 4924,
      "##sü": 4925,
      "gölü": 4926,
      "tbmm": 4927,
      "##ida": 4928,
      "sıcaklık": 4929,
      "mavi": 4930,
      "bilgiler": 4931,
      "sıv": 4932,
      "yüzünden": 4933,
      "konseyi": 4934,
      "va": 4935,
      "olduğuna": 4936,
      "dolar": 4937,
      "hek": 4938,
      "##imark": 4939,
      "milliyet": 4940,
      "yayınlan": 4941,
      "galib": 4942,
      "##lemeye": 4943,
      "jon": 4944,
      "ndaki": 4945,
      "kimyasal": 4946,
      "##eyin": 4947,
      "kaybetti": 4948,
      "danimark": 4949,
      "insanlar": 4950,
      "lideri": 4951,
      "fay": 4952,
      "oyunun": 4953,
      "uzunluğ": 4954,
      "cis": 4955,
      "##ullah": 4956,
      "dakik": 4957,
      "##caktır": 4958,
      "onların": 4959,
      "tesis": 4960,
      "büny": 4961,
      "##cin": 4962,
      "##ulur": 4963,
      "petrol": 4964,
      "nükle": 4965,
      "ze": 4966,
      "gerekir": 4967,
      "maçına": 4968,
      "##desi": 4969,
      "##liler": 4970,
      "cad": 4971,
      "venedik": 4972,
      "verilir": 4973,
      "halkı": 4974,
      "yaparak": 4975,
      "##köy": 4976,
      "bölgenin": 4977,
      "##lerindeki": 4978,
      "kullanımı": 4979,
      "##bey": 4980,
      "##leyici": 4981,
      "gec": 4982,
      "##isti": 4983,
      "katılan": 4984,
      "##eği": 4985,
      "harf": 4986,
      "##liğinden": 4987,
      "danış": 4988,
      "##şi": 4989,
      "olduğundan": 4990,
      "yüzölçümü": 4991,
      "##own": 4992,
      "karşın": 4993,
      "kişiler": 4994,
      "yandan": 4995,
      "##ker": 4996,
      "depr": 4997,
      "operasyon": 4998,
      "kütle": 4999,
      "kalın": 5000,
      "komisyon": 5001,
      "##birliği": 5002,
      "seçimleri": 5003,
      "##so": 5004,
      "yanlış": 5005,
      "bür": 5006,
      "gay": 5007,
      "##edr": 5008,
      "ilinde": 5009,
      "manas": 5010,
      "kelime": 5011,
      "hab": 5012,
      "müda": 5013,
      "##elerini": 5014,
      "haft": 5015,
      "kentinde": 5016,
      "taht": 5017,
      "biraz": 5018,
      "##chel": 5019,
      "##ami": 5020,
      "çiçek": 5021,
      "##ward": 5022,
      "hakları": 5023,
      "tartışma": 5024,
      "##asıdır": 5025,
      "medya": 5026,
      "##uel": 5027,
      "##unlu": 5028,
      "##istin": 5029,
      "##amet": 5030,
      "gösterdi": 5031,
      "klip": 5032,
      "##ceğini": 5033,
      "##ational": 5034,
      "haçlı": 5035,
      "öğrenci": 5036,
      "nev": 5037,
      "adım": 5038,
      "##gör": 5039,
      "##kim": 5040,
      "por": 5041,
      "yaprak": 5042,
      "kraliyet": 5043,
      "ağı": 5044,
      "adası": 5045,
      "star": 5046,
      "hidro": 5047,
      "##geç": 5048,
      "çözüm": 5049,
      "##old": 5050,
      "##gon": 5051,
      "diyar": 5052,
      "##uth": 5053,
      "konstantin": 5054,
      "##batı": 5055,
      "muharebesi": 5056,
      "efendi": 5057,
      "kolek": 5058,
      "yıldır": 5059,
      "önceleri": 5060,
      "önünde": 5061,
      "makale": 5062,
      "##âh": 5063,
      "sahipliği": 5064,
      "seya": 5065,
      "üretimi": 5066,
      "çizg": 5067,
      "güncel": 5068,
      "charles": 5069,
      "başlangıçta": 5070,
      "war": 5071,
      "etmesi": 5072,
      "talep": 5073,
      "komutanı": 5074,
      "kuy": 5075,
      "##iklet": 5076,
      "belçika": 5077,
      "adlandırılan": 5078,
      "beşinci": 5079,
      "rüt": 5080,
      "ciddi": 5081,
      "demokratik": 5082,
      "geçici": 5083,
      "lov": 5084,
      "görülen": 5085,
      "bulgaristan": 5086,
      "meksika": 5087,
      "yir": 5088,
      "##yolu": 5089,
      "göm": 5090,
      "ide": 5091,
      "zır": 5092,
      "tahta": 5093,
      "nedeni": 5094,
      "##luğunu": 5095,
      "amatör": 5096,
      "çanak": 5097,
      "büyü": 5098,
      "strate": 5099,
      "world": 5100,
      "kadros": 5101,
      "özelliği": 5102,
      "kos": 5103,
      "karab": 5104,
      "asit": 5105,
      "rest": 5106,
      "##fak": 5107,
      "bölgesel": 5108,
      "katolik": 5109,
      "erzurum": 5110,
      "adalet": 5111,
      "aksine": 5112,
      "müzisyen": 5113,
      "kafk": 5114,
      "##vin": 5115,
      "baraj": 5116,
      "halka": 5117,
      "çerçev": 5118,
      "birden": 5119,
      "gerçekleştirilen": 5120,
      "organizasyon": 5121,
      "bahç": 5122,
      "##day": 5123,
      "belirtti": 5124,
      "max": 5125,
      "mütte": 5126,
      "çağr": 5127,
      "##cer": 5128,
      "söylen": 5129,
      "depo": 5130,
      "hitler": 5131,
      "pos": 5132,
      "sanatçısı": 5133,
      "milyar": 5134,
      "hint": 5135,
      "milletvekil": 5136,
      "evlendi": 5137,
      "##larca": 5138,
      "sad": 5139,
      "başlıca": 5140,
      "maked": 5141,
      "i̇brahim": 5142,
      "barındır": 5143,
      "başbakan": 5144,
      "ast": 5145,
      "##ja": 5146,
      "zafer": 5147,
      "##bc": 5148,
      "##mıyla": 5149,
      "##elere": 5150,
      "dij": 5151,
      "döv": 5152,
      "göv": 5153,
      "reak": 5154,
      "angeles": 5155,
      "##ott": 5156,
      "içeri": 5157,
      "##ann": 5158,
      "çam": 5159,
      "kapsamında": 5160,
      "denizi": 5161,
      "adana": 5162,
      "düğ": 5163,
      "olas": 5164,
      "##tez": 5165,
      "elektronik": 5166,
      "nehir": 5167,
      "balkan": 5168,
      "##ole": 5169,
      "sırp": 5170,
      "devre": 5171,
      "mektup": 5172,
      "genişlet": 5173,
      "sw": 5174,
      "giydi": 5175,
      "ismini": 5176,
      "det": 5177,
      "müttefik": 5178,
      "mens": 5179,
      "yaşındayken": 5180,
      "hot": 5181,
      "sezonun": 5182,
      "i̇dar": 5183,
      "eleme": 5184,
      "düzenli": 5185,
      "temiz": 5186,
      "manastır": 5187,
      "efsan": 5188,
      "festival": 5189,
      "karay": 5190,
      "jean": 5191,
      "##ülebilir": 5192,
      "##lanabilir": 5193,
      "merkezli": 5194,
      "geçmiştir": 5195,
      "ların": 5196,
      "zırh": 5197,
      "karmaşık": 5198,
      "yağı": 5199,
      "kişidir": 5200,
      "eleştirmen": 5201,
      "ms": 5202,
      "sürdü": 5203,
      "takımına": 5204,
      "von": 5205,
      "giderek": 5206,
      "gereken": 5207,
      "kalp": 5208,
      "giden": 5209,
      "cami": 5210,
      "ortadan": 5211,
      "black": 5212,
      "##tarı": 5213,
      "laz": 5214,
      "##koç": 5215,
      "sir": 5216,
      "ısı": 5217,
      "oyunc": 5218,
      "arke": 5219,
      "off": 5220,
      "yunanca": 5221,
      "tablo": 5222,
      "tü": 5223,
      "hatt": 5224,
      "özellikleri": 5225,
      "karbon": 5226,
      "aşam": 5227,
      "ettiler": 5228,
      "olmaya": 5229,
      "##udur": 5230,
      "seçilmiştir": 5231,
      "gemi": 5232,
      "etkileş": 5233,
      "evlilik": 5234,
      "koz": 5235,
      "vic": 5236,
      "sonlarında": 5237,
      "doğa": 5238,
      "düşür": 5239,
      "mis": 5240,
      "dizisinde": 5241,
      "anlay": 5242,
      "##idi": 5243,
      "##board": 5244,
      "başlamış": 5245,
      "##ited": 5246,
      "##abı": 5247,
      "bölgeye": 5248,
      "##iel": 5249,
      "franc": 5250,
      "ul": 5251,
      "##mit": 5252,
      "##ıda": 5253,
      "mobil": 5254,
      "dünyada": 5255,
      "şampiyonluğu": 5256,
      "günümüze": 5257,
      "parlak": 5258,
      "##sur": 5259,
      "kullanılabilir": 5260,
      "çor": 5261,
      "konya": 5262,
      "##kur": 5263,
      "olimpiyatları": 5264,
      "sözcü": 5265,
      "##lamış": 5266,
      "finale": 5267,
      "hızla": 5268,
      "fig": 5269,
      "##esto": 5270,
      "ilişkin": 5271,
      "pilot": 5272,
      "aralarında": 5273,
      "etik": 5274,
      "proje": 5275,
      "##lit": 5276,
      "yapısı": 5277,
      "##ath": 5278,
      "kayb": 5279,
      "getirdi": 5280,
      "sözc": 5281,
      "vermektedir": 5282,
      "federasyonu": 5283,
      "##mann": 5284,
      "halkın": 5285,
      "taar": 5286,
      "kays": 5287,
      "küresel": 5288,
      "reddet": 5289,
      "dizinin": 5290,
      "birbirine": 5291,
      "üz": 5292,
      "##dağ": 5293,
      "gerektir": 5294,
      "##amadı": 5295,
      "üyeliği": 5296,
      "grand": 5297,
      "hiss": 5298,
      "kullanan": 5299,
      "şehirde": 5300,
      "çalıştır": 5301,
      "kurucusu": 5302,
      "##amik": 5303,
      "seyahat": 5304,
      "yönetmenliğini": 5305,
      "ikisi": 5306,
      "##tah": 5307,
      "moğol": 5308,
      "##lerdeki": 5309,
      "girmiştir": 5310,
      "record": 5311,
      "vakf": 5312,
      "sinem": 5313,
      "##liğinin": 5314,
      "oynayan": 5315,
      "birisi": 5316,
      "##sak": 5317,
      "alma": 5318,
      "opera": 5319,
      "riv": 5320,
      "tedavi": 5321,
      "##imin": 5322,
      "yaşadı": 5323,
      "cov": 5324,
      "ekonomi": 5325,
      "tiyatrosu": 5326,
      "kayıp": 5327,
      "##ulları": 5328,
      "alp": 5329,
      "başardı": 5330,
      "dijital": 5331,
      "problem": 5332,
      "##leyic": 5333,
      "fet": 5334,
      "antalya": 5335,
      "tı": 5336,
      "mür": 5337,
      "çekildi": 5338,
      "##vik": 5339,
      "anlaşma": 5340,
      "bugünkü": 5341,
      "düştü": 5342,
      "##ius": 5343,
      "ediyor": 5344,
      "etki": 5345,
      "chris": 5346,
      "toplumsal": 5347,
      "federal": 5348,
      "muhtemelen": 5349,
      "##bakır": 5350,
      "erkekler": 5351,
      "##süz": 5352,
      "nadir": 5353,
      "durumunda": 5354,
      "bitirdi": 5355,
      "##olis": 5356,
      "sarmal": 5357,
      "gro": 5358,
      "günde": 5359,
      "istedi": 5360,
      "çıkart": 5361,
      "milletler": 5362,
      "##acağı": 5363,
      "görevlendir": 5364,
      "davet": 5365,
      "diyarbakır": 5366,
      "set": 5367,
      "##orit": 5368,
      "selçuklu": 5369,
      "i̇skoç": 5370,
      "mikro": 5371,
      "ikin": 5372,
      "çub": 5373,
      "antlaşması": 5374,
      "anim": 5375,
      "nö": 5376,
      "##aza": 5377,
      "richard": 5378,
      "his": 5379,
      "bec": 5380,
      "##layıp": 5381,
      "etnik": 5382,
      "akış": 5383,
      "best": 5384,
      "hazırlık": 5385,
      "##by": 5386,
      "önceden": 5387,
      "kapasit": 5388,
      "yaşanan": 5389,
      "gençlik": 5390,
      "aktiv": 5391,
      "##lüğünü": 5392,
      "anıt": 5393,
      "edilebilir": 5394,
      "bran": 5395,
      "meslek": 5396,
      "kütüphan": 5397,
      "gra": 5398,
      "##landığı": 5399,
      "##ilerinden": 5400,
      "kapı": 5401,
      "çalışması": 5402,
      "##bu": 5403,
      "semt": 5404,
      "kov": 5405,
      "sahil": 5406,
      "batısında": 5407,
      "##ald": 5408,
      "iklim": 5409,
      "rütb": 5410,
      "##sat": 5411,
      "yatırım": 5412,
      "##uluğ": 5413,
      "isten": 5414,
      "##vanya": 5415,
      "galibiyet": 5416,
      "nazi": 5417,
      "##ilerinde": 5418,
      "prof": 5419,
      "had": 5420,
      "##onun": 5421,
      "##elendir": 5422,
      "##fez": 5423,
      "##ure": 5424,
      "##tep": 5425,
      "koca": 5426,
      "önde": 5427,
      "ib": 5428,
      "gören": 5429,
      "sabah": 5430,
      "vb": 5431,
      "##que": 5432,
      "asist": 5433,
      "sergil": 5434,
      "ettik": 5435,
      "ayrılır": 5436,
      "pri": 5437,
      "filistin": 5438,
      "##lemiştir": 5439,
      "dergisi": 5440,
      "##del": 5441,
      "ermenistan": 5442,
      "içi": 5443,
      "tehdit": 5444,
      "noktası": 5445,
      "##oslav": 5446,
      "zey": 5447,
      "doğusunda": 5448,
      "amaçlı": 5449,
      "herkes": 5450,
      "havalimanı": 5451,
      "##ersiz": 5452,
      "seçimlerinde": 5453,
      "vit": 5454,
      "##ome": 5455,
      "##gü": 5456,
      "##wood": 5457,
      "##ila": 5458,
      "parçacık": 5459,
      "fri": 5460,
      "asıllı": 5461,
      "kilometre": 5462,
      "##che": 5463,
      "##ılma": 5464,
      "ödülünü": 5465,
      "##lığın": 5466,
      "rüz": 5467,
      "altern": 5468,
      "dile": 5469,
      "##laşma": 5470,
      "kendisinin": 5471,
      "hüseyin": 5472,
      "başlık": 5473,
      "liman": 5474,
      "pre": 5475,
      "başkent": 5476,
      "##olf": 5477,
      "viy": 5478,
      "hırvat": 5479,
      "kg": 5480,
      "istasyon": 5481,
      "alek": 5482,
      "geldiği": 5483,
      "##ulmuş": 5484,
      "gram": 5485,
      "şehridir": 5486,
      "kub": 5487,
      "önder": 5488,
      "lise": 5489,
      "##opa": 5490,
      "iletişim": 5491,
      "bıraktı": 5492,
      "##tısı": 5493,
      "aynalı": 5494,
      "ailesinin": 5495,
      "gerçekleşen": 5496,
      "kadro": 5497,
      "arttır": 5498,
      "voley": 5499,
      "kaybe": 5500,
      "yayınlanmıştır": 5501,
      "özgün": 5502,
      "camii": 5503,
      "slov": 5504,
      "nap": 5505,
      "vermek": 5506,
      "kırım": 5507,
      "hatır": 5508,
      "hayatı": 5509,
      "zamanında": 5510,
      "stadyumu": 5511,
      "öldürüldü": 5512,
      "çalışır": 5513,
      "##kender": 5514,
      "katıldığı": 5515,
      "çıkardı": 5516,
      "seyir": 5517,
      "##arya": 5518,
      "gerektiğini": 5519,
      "cha": 5520,
      "##lerdi": 5521,
      "körfez": 5522,
      "##feri": 5523,
      "bi": 5524,
      "larda": 5525,
      "##ulmuştur": 5526,
      "anayas": 5527,
      "##emez": 5528,
      "cr": 5529,
      "toplantı": 5530,
      "reform": 5531,
      "cap": 5532,
      "##tt": 5533,
      "dalında": 5534,
      "sporcu": 5535,
      "kullanılarak": 5536,
      "öykü": 5537,
      "zam": 5538,
      "zinc": 5539,
      "##ikal": 5540,
      "##mos": 5541,
      "olumlu": 5542,
      "elinde": 5543,
      "gezegen": 5544,
      "##bilecek": 5545,
      "azalt": 5546,
      "##tip": 5547,
      "finland": 5548,
      "west": 5549,
      "almanca": 5550,
      "esir": 5551,
      "miss": 5552,
      "avuk": 5553,
      "savaşın": 5554,
      "ru": 5555,
      "you": 5556,
      "##way": 5557,
      "nam": 5558,
      "##mamıştır": 5559,
      "andre": 5560,
      "i̇skender": 5561,
      "nba": 5562,
      "süs": 5563,
      "reklam": 5564,
      "farklılık": 5565,
      "dor": 5566,
      "üretic": 5567,
      "##tifak": 5568,
      "alk": 5569,
      "yazılan": 5570,
      "bron": 5571,
      "sinir": 5572,
      "danimarka": 5573,
      "##val": 5574,
      "eline": 5575,
      "mahm": 5576,
      "##uncu": 5577,
      "ister": 5578,
      "##cr": 5579,
      "analiz": 5580,
      "koleksiyon": 5581,
      "##memiş": 5582,
      "##cy": 5583,
      "başlandı": 5584,
      "rusça": 5585,
      "rady": 5586,
      "tedav": 5587,
      "##gam": 5588,
      "dışarı": 5589,
      "latin": 5590,
      "tarihsel": 5591,
      "mesaj": 5592,
      "listesi": 5593,
      "anah": 5594,
      "##tic": 5595,
      "sonuna": 5596,
      "kapalı": 5597,
      "çaba": 5598,
      "##akya": 5599,
      "##alin": 5600,
      "almaya": 5601,
      "istifa": 5602,
      "##düs": 5603,
      "##bistan": 5604,
      "beğ": 5605,
      "tanr": 5606,
      "##tle": 5607,
      "komedi": 5608,
      "rej": 5609,
      "imkân": 5610,
      "imzaladı": 5611,
      "numara": 5612,
      "##ux": 5613,
      "kalıntı": 5614,
      "kupa": 5615,
      "##ugh": 5616,
      "konuşma": 5617,
      "##alam": 5618,
      "rev": 5619,
      "##bas": 5620,
      "kok": 5621,
      "doğumlu": 5622,
      "ekiplerinden": 5623,
      "potans": 5624,
      "pey": 5625,
      "##öre": 5626,
      "kraliç": 5627,
      "türüdür": 5628,
      "##ülmüştür": 5629,
      "halde": 5630,
      "eğil": 5631,
      "komitesi": 5632,
      "kurumu": 5633,
      "takv": 5634,
      "serisi": 5635,
      "aziz": 5636,
      "zamanla": 5637,
      "fas": 5638,
      "gerçekleşti": 5639,
      "oldukları": 5640,
      "çak": 5641,
      "mehmed": 5642,
      "##elerine": 5643,
      "vas": 5644,
      "ışı": 5645,
      "ört": 5646,
      "fos": 5647,
      "adaları": 5648,
      "zirv": 5649,
      "##chi": 5650,
      "dök": 5651,
      "kast": 5652,
      "##ydi": 5653,
      "##ilenin": 5654,
      "i̇sa": 5655,
      "##tain": 5656,
      "hattı": 5657,
      "şeri": 5658,
      "rot": 5659,
      "karşılaştır": 5660,
      "antren": 5661,
      "çağdaş": 5662,
      "##espor": 5663,
      "##ıldığında": 5664,
      "halen": 5665,
      "hoş": 5666,
      "taşındı": 5667,
      "krist": 5668,
      "yaşlı": 5669,
      "teknoloji": 5670,
      "boyu": 5671,
      "##ern": 5672,
      "##uvarı": 5673,
      "romalı": 5674,
      "cel": 5675,
      "eserleri": 5676,
      "sezonunun": 5677,
      "##ft": 5678,
      "##umsuz": 5679,
      "##uml": 5680,
      "isteyen": 5681,
      "cil": 5682,
      "##vir": 5683,
      "babasıdır": 5684,
      "voleybol": 5685,
      "jür": 5686,
      "##öğ": 5687,
      "kimya": 5688,
      "albümde": 5689,
      "mers": 5690,
      "##ks": 5691,
      "##tro": 5692,
      "sıvı": 5693,
      "köle": 5694,
      "##ıyı": 5695,
      "gıda": 5696,
      "billboard": 5697,
      "taarruz": 5698,
      "sokak": 5699,
      "birimi": 5700,
      "sezonda": 5701,
      "zamanlarda": 5702,
      "henry": 5703,
      "anton": 5704,
      "teşvik": 5705,
      "benzeri": 5706,
      "farsça": 5707,
      "##pet": 5708,
      "edecek": 5709,
      "fabrik": 5710,
      "yönetmeni": 5711,
      "gelişmiş": 5712,
      "dağları": 5713,
      "alternatif": 5714,
      "şüp": 5715,
      "kayıtlarında": 5716,
      "faktör": 5717,
      "ec": 5718,
      "renkli": 5719,
      "i̇li": 5720,
      "uzan": 5721,
      "başkanlık": 5722,
      "topluluğu": 5723,
      "##lanarak": 5724,
      "eksik": 5725,
      "salon": 5726,
      "ahmed": 5727,
      "modeli": 5728,
      "##tis": 5729,
      "##gat": 5730,
      "dergi": 5731,
      "all": 5732,
      "adlandırılır": 5733,
      "kurtuluş": 5734,
      "maça": 5735,
      "kullandığı": 5736,
      "ram": 5737,
      "valisi": 5738,
      "##elli": 5739,
      "görülmektedir": 5740,
      "numaraya": 5741,
      "nah": 5742,
      "turizm": 5743,
      "##oto": 5744,
      "bakımından": 5745,
      "##ğünde": 5746,
      "tipik": 5747,
      "kalesi": 5748,
      "siyasal": 5749,
      "finlandiya": 5750,
      "aracı": 5751,
      "post": 5752,
      "birleşmiş": 5753,
      "##ayarak": 5754,
      "##etin": 5755,
      "united": 5756,
      "hil": 5757,
      "nükleer": 5758,
      "thomas": 5759,
      "atlet": 5760,
      "##memektedir": 5761,
      "stratej": 5762,
      "korumak": 5763,
      "tw": 5764,
      "##lığının": 5765,
      "##inler": 5766,
      "beden": 5767,
      "romanya": 5768,
      "kalk": 5769,
      "mağlup": 5770,
      "başladığı": 5771,
      "i̇t": 5772,
      "records": 5773,
      "şirketin": 5774,
      "##vanı": 5775,
      "demokrat": 5776,
      "show": 5777,
      "katılmıştır": 5778,
      "oluşum": 5779,
      "yörün": 5780,
      "olanak": 5781,
      "subay": 5782,
      "##ander": 5783,
      "##ücu": 5784,
      "##areti": 5785,
      "elektron": 5786,
      "##ence": 5787,
      "saç": 5788,
      "##lenmektedir": 5789,
      "eskişehir": 5790,
      "bulut": 5791,
      "mahallenin": 5792,
      "##inç": 5793,
      "stadyum": 5794,
      "kazandır": 5795,
      "##cın": 5796,
      "sahipti": 5797,
      "yaratı": 5798,
      "yönettiği": 5799,
      "##mail": 5800,
      "ailenin": 5801,
      "yazılmış": 5802,
      "imza": 5803,
      "müdaha": 5804,
      "oynamıştır": 5805,
      "##mel": 5806,
      "kalma": 5807,
      "kn": 5808,
      "çey": 5809,
      "abdül": 5810,
      "yürüy": 5811,
      "protesto": 5812,
      "##ding": 5813,
      "alfab": 5814,
      "karakteri": 5815,
      "king": 5816,
      "##likleri": 5817,
      "##ls": 5818,
      "kesim": 5819,
      "##lie": 5820,
      "anlamda": 5821,
      "##ora": 5822,
      "feth": 5823,
      "köyde": 5824,
      "olmadan": 5825,
      "özgü": 5826,
      "gönül": 5827,
      "şeker": 5828,
      "altındaki": 5829,
      "##ush": 5830,
      "martin": 5831,
      "yola": 5832,
      "##ilmesini": 5833,
      "kudüs": 5834,
      "edip": 5835,
      "##şam": 5836,
      "##uç": 5837,
      "yug": 5838,
      "##iba": 5839,
      "şans": 5840,
      "ilaç": 5841,
      "maruz": 5842,
      "kont": 5843,
      "duyurdu": 5844,
      "##ys": 5845,
      "##eph": 5846,
      "##umb": 5847,
      "ssc": 5848,
      "##leşme": 5849,
      "rolü": 5850,
      "nat": 5851,
      "##itik": 5852,
      "eğitimini": 5853,
      "şeyh": 5854,
      "cla": 5855,
      "mülk": 5856,
      "idam": 5857,
      "league": 5858,
      "yetkil": 5859,
      "##leridir": 5860,
      "kenti": 5861,
      "yarımada": 5862,
      "yirmi": 5863,
      "zamanlar": 5864,
      "##cus": 5865,
      "onlara": 5866,
      "yasal": 5867,
      "veril": 5868,
      "yolcu": 5869,
      "alış": 5870,
      "yakınlarında": 5871,
      "sürdürdü": 5872,
      "##ilmesine": 5873,
      "kaçır": 5874,
      "##emiş": 5875,
      "demiryolu": 5876,
      "toplu": 5877,
      "şimdi": 5878,
      "görür": 5879,
      "yapımcı": 5880,
      "felsefe": 5881,
      "vüc": 5882,
      "köpek": 5883,
      "dna": 5884,
      "büyükşehir": 5885,
      "düzenleme": 5886,
      "çekti": 5887,
      "kenar": 5888,
      "len": 5889,
      "##gur": 5890,
      "çevresinde": 5891,
      "kullanır": 5892,
      "parlamento": 5893,
      "temsilcisi": 5894,
      "##ero": 5895,
      "unsur": 5896,
      "piyan": 5897,
      "yaklaşım": 5898,
      "yama": 5899,
      "örgütü": 5900,
      "##orat": 5901,
      "anı": 5902,
      "nur": 5903,
      "##mız": 5904,
      "gösterildi": 5905,
      "rez": 5906,
      "suyu": 5907,
      "solo": 5908,
      "sinyal": 5909,
      "##lığında": 5910,
      "banka": 5911,
      "##ane": 5912,
      "##imet": 5913,
      "şam": 5914,
      "##iller": 5915,
      "vah": 5916,
      "röpor": 5917,
      "performansı": 5918,
      "juli": 5919,
      "afrik": 5920,
      "ilişki": 5921,
      "prodük": 5922,
      "müsab": 5923,
      "##otik": 5924,
      "röportaj": 5925,
      "bulundur": 5926,
      "##ku": 5927,
      "vücut": 5928,
      "kısı": 5929,
      "taşımaktadır": 5930,
      "##mesinde": 5931,
      "birlikleri": 5932,
      "kanalı": 5933,
      "lük": 5934,
      "##itler": 5935,
      "dedi": 5936,
      "##gusal": 5937,
      "viyana": 5938,
      "dağılım": 5939,
      "yugoslav": 5940,
      "kolon": 5941,
      "wash": 5942,
      "##dere": 5943,
      "##ever": 5944,
      "sırbistan": 5945,
      "ayı": 5946,
      "real": 5947,
      "grubunun": 5948,
      "ligde": 5949,
      "projesi": 5950,
      "louis": 5951,
      "karşılı": 5952,
      "##uva": 5953,
      "bastır": 5954,
      "yarım": 5955,
      "katkıda": 5956,
      "som": 5957,
      "##ive": 5958,
      "evlen": 5959,
      "##lılar": 5960,
      "piyade": 5961,
      "atina": 5962,
      "şampiyonlar": 5963,
      "nüfusun": 5964,
      "big": 5965,
      "ordusunun": 5966,
      "##kür": 5967,
      "göka": 5968,
      "sembol": 5969,
      "konferans": 5970,
      "akademi": 5971,
      "mich": 5972,
      "yaşamaktadır": 5973,
      "kulüplerinde": 5974,
      "##ştık": 5975,
      "figür": 5976,
      "oynamaktadır": 5977,
      "##iyeri": 5978,
      "rakip": 5979,
      "bisiklet": 5980,
      "avukat": 5981,
      "##i̇": 5982,
      "##atistik": 5983,
      "##illa": 5984,
      "madaly": 5985,
      "sürede": 5986,
      "goog": 5987,
      "fayda": 5988,
      "hop": 5989,
      "enter": 5990,
      "##ory": 5991,
      "##lon": 5992,
      "suy": 5993,
      "dür": 5994,
      "ilişkili": 5995,
      "mahkemesi": 5996,
      "sınırlı": 5997,
      "hayatta": 5998,
      "##türü": 5999,
      "saint": 6000,
      "##abile": 6001,
      "şiş": 6002,
      "##ileştir": 6003,
      "okudu": 6004,
      "##ater": 6005,
      "yel": 6006,
      "##ilya": 6007,
      "fatih": 6008,
      "love": 6009,
      "oyunculuk": 6010,
      "pra": 6011,
      "mensup": 6012,
      "##ülük": 6013,
      "yüzde": 6014,
      "##ese": 6015,
      "##lâ": 6016,
      "blu": 6017,
      "açıldı": 6018,
      "gelişme": 6019,
      "yazılı": 6020,
      "lam": 6021,
      "adayı": 6022,
      "ente": 6023,
      "##güne": 6024,
      "ederken": 6025,
      "##oman": 6026,
      "felsef": 6027,
      "lay": 6028,
      "romanı": 6029,
      "##ıza": 6030,
      "laborat": 6031,
      "kısıt": 6032,
      "##ilendir": 6033,
      "okyanus": 6034,
      "etrafında": 6035,
      "washington": 6036,
      "birer": 6037,
      "tarzı": 6038,
      "malzeme": 6039,
      "arz": 6040,
      "ty": 6041,
      "##etti": 6042,
      "yeterli": 6043,
      "##enler": 6044,
      "##itz": 6045,
      "google": 6046,
      "şif": 6047,
      "##gesi": 6048,
      "##ico": 6049,
      "gruba": 6050,
      "gelmiş": 6051,
      "yakalan": 6052,
      "alınmıştır": 6053,
      "sağlam": 6054,
      "##lemektedir": 6055,
      "##ston": 6056,
      "hayatına": 6057,
      "##iyatı": 6058,
      "açılan": 6059,
      "bölümde": 6060,
      "vurgu": 6061,
      "sakat": 6062,
      "çök": 6063,
      "pis": 6064,
      "##çilik": 6065,
      "yetenek": 6066,
      "kel": 6067,
      "devletin": 6068,
      "hacı": 6069,
      "##ülasyon": 6070,
      "olağan": 6071,
      "bra": 6072,
      "##işi": 6073,
      "bilimler": 6074,
      "varsay": 6075,
      "görevine": 6076,
      "sıf": 6077,
      "##imine": 6078,
      "##ülür": 6079,
      "bakan": 6080,
      "##üyordu": 6081,
      "bozuk": 6082,
      "mahallesi": 6083,
      "vakfı": 6084,
      "turnuva": 6085,
      "##ois": 6086,
      "manyetik": 6087,
      "apple": 6088,
      "gazi": 6089,
      "sınıfı": 6090,
      "ekibi": 6091,
      "##cia": 6092,
      "miktarda": 6093,
      "yönlendir": 6094,
      "üyesidir": 6095,
      "istih": 6096,
      "herschel": 6097,
      "hastalı": 6098,
      "bünyesinde": 6099,
      "mezunu": 6100,
      "##esir": 6101,
      "chan": 6102,
      "sha": 6103,
      "##nu": 6104,
      "##rin": 6105,
      "rob": 6106,
      "person": 6107,
      "otob": 6108,
      "taban": 6109,
      "kıt": 6110,
      "araba": 6111,
      "başvur": 6112,
      "yetene": 6113,
      "giyen": 6114,
      "müdürü": 6115,
      "kampan": 6116,
      "mersin": 6117,
      "##ğiyle": 6118,
      "değişken": 6119,
      "şov": 6120,
      "sözcük": 6121,
      "yansı": 6122,
      "incelen": 6123,
      "##lası": 6124,
      "geçirdiği": 6125,
      "muha": 6126,
      "tanınan": 6127,
      "bağlıdır": 6128,
      "wr": 6129,
      "kongr": 6130,
      "kıyısında": 6131,
      "komşu": 6132,
      "eşlik": 6133,
      "yanına": 6134,
      "düşünc": 6135,
      "kılıç": 6136,
      "makam": 6137,
      "##tre": 6138,
      "org": 6139,
      "dava": 6140,
      "madrid": 6141,
      "joseph": 6142,
      "devletler": 6143,
      "müşt": 6144,
      "##denin": 6145,
      "numaralı": 6146,
      "nih": 6147,
      "##doğan": 6148,
      "açıdan": 6149,
      "sergilen": 6150,
      "##kır": 6151,
      "##dişah": 6152,
      "##zade": 6153,
      "değeri": 6154,
      "tamamı": 6155,
      "##veren": 6156,
      "vücu": 6157,
      "rey": 6158,
      "olmakla": 6159,
      "devrimi": 6160,
      "hum": 6161,
      "latince": 6162,
      "ötürü": 6163,
      "##iter": 6164,
      "gelin": 6165,
      "sn": 6166,
      "oluşturulan": 6167,
      "balıkesir": 6168,
      "##malıdır": 6169,
      "##ach": 6170,
      "bahsed": 6171,
      "geçerek": 6172,
      "##esiz": 6173,
      "padişah": 6174,
      "soruml": 6175,
      "tıb": 6176,
      "hanedanı": 6177,
      "çocukları": 6178,
      "murat": 6179,
      "##diğinde": 6180,
      "rahatsız": 6181,
      "süreli": 6182,
      "sistemleri": 6183,
      "artan": 6184,
      "sic": 6185,
      "##ılmasına": 6186,
      "tarihte": 6187,
      "esnasında": 6188,
      "ayar": 6189,
      "eğlen": 6190,
      "kayseri": 6191,
      "##leye": 6192,
      "çoğunluğu": 6193,
      "senary": 6194,
      "sarayı": 6195,
      "bayrak": 6196,
      "akademik": 6197,
      "tarafında": 6198,
      "şer": 6199,
      "edildiği": 6200,
      "sına": 6201,
      "inter": 6202,
      "jen": 6203,
      "restor": 6204,
      "##dun": 6205,
      "oluşturdu": 6206,
      "##ont": 6207,
      "refer": 6208,
      "çekil": 6209,
      "gökada": 6210,
      "muk": 6211,
      "köprü": 6212,
      "takımlarından": 6213,
      "unvanını": 6214,
      "##chester": 6215,
      "tasarı": 6216,
      "arnavutluk": 6217,
      "geliştirme": 6218,
      "##lamadı": 6219,
      "aug": 6220,
      "pasif": 6221,
      "##ser": 6222,
      "yakıt": 6223,
      "çanakkale": 6224,
      "çıktığı": 6225,
      "gönderildi": 6226,
      "sip": 6227,
      "yit": 6228,
      "##orth": 6229,
      "hangi": 6230,
      "reh": 6231,
      "doldur": 6232,
      "inşaat": 6233,
      "olaylar": 6234,
      "##tra": 6235,
      "yed": 6236,
      "darb": 6237,
      "papa": 6238,
      "ihra": 6239,
      "let": 6240,
      "gazetec": 6241,
      "oluşturduğu": 6242,
      "##ilerle": 6243,
      "anayasa": 6244,
      "##memiştir": 6245,
      "##lenerek": 6246,
      "roy": 6247,
      "##liliği": 6248,
      "yapma": 6249,
      "uğraş": 6250,
      "hikâye": 6251,
      "##tv": 6252,
      "##okul": 6253,
      "türlü": 6254,
      "yükselt": 6255,
      "##dor": 6256,
      "birisidir": 6257,
      "##off": 6258,
      "##uke": 6259,
      "kalkın": 6260,
      "başbakanı": 6261,
      "##ilmeye": 6262,
      "i̇smail": 6263,
      "kullandı": 6264,
      "komutanlığı": 6265,
      "##giller": 6266,
      "şarap": 6267,
      "çıkmış": 6268,
      "ülkelerde": 6269,
      "##osunu": 6270,
      "öngör": 6271,
      "##ılmasını": 6272,
      "belirgin": 6273,
      "takımlar": 6274,
      "##án": 6275,
      "tahr": 6276,
      "iddi": 6277,
      "blok": 6278,
      "şen": 6279,
      "##ned": 6280,
      "jackson": 6281,
      "edir": 6282,
      "aittir": 6283,
      "lee": 6284,
      "one": 6285,
      "ölümü": 6286,
      "bayram": 6287,
      "##mey": 6288,
      "kazı": 6289,
      "gençler": 6290,
      "karışık": 6291,
      "gazeteci": 6292,
      "karıştır": 6293,
      "hanım": 6294,
      "tarihinin": 6295,
      "çalışmalarına": 6296,
      "karşılığında": 6297,
      "cevap": 6298,
      "hayal": 6299,
      "yapılmaktadır": 6300,
      "çuk": 6301,
      "soya": 6302,
      "kısaca": 6303,
      "risk": 6304,
      "##ılmasıyla": 6305,
      "forması": 6306,
      "seçilen": 6307,
      "vazgeç": 6308,
      "doktora": 6309,
      "görüldü": 6310,
      "sib": 6311,
      "yaşar": 6312,
      "görsel": 6313,
      "düşünülmektedir": 6314,
      "##field": 6315,
      "kalab": 6316,
      "parale": 6317,
      "##elerden": 6318,
      "super": 6319,
      "##lüğe": 6320,
      "denklem": 6321,
      "çekirdek": 6322,
      "fiyat": 6323,
      "parkı": 6324,
      "cephe": 6325,
      "tit": 6326,
      "aktör": 6327,
      "filmidir": 6328,
      "çelik": 6329,
      "koç": 6330,
      "üstlendi": 6331,
      "sıklıkla": 6332,
      "##lamaz": 6333,
      "##cher": 6334,
      "senesinde": 6335,
      "##ates": 6336,
      "olumsuz": 6337,
      "versiyonu": 6338,
      "##liye": 6339,
      "vik": 6340,
      "sisteminin": 6341,
      "##sizlik": 6342,
      "değildi": 6343,
      "francis": 6344,
      "yakal": 6345,
      "imzalan": 6346,
      "öncesinde": 6347,
      "karısı": 6348,
      "hy": 6349,
      "ikili": 6350,
      "komutan": 6351,
      "##mamaktadır": 6352,
      "up": 6353,
      "##aklı": 6354,
      "##urta": 6355,
      "##tıcı": 6356,
      "memur": 6357,
      "pu": 6358,
      "##mediği": 6359,
      "leon": 6360,
      "posta": 6361,
      "atlan": 6362,
      "olacaktır": 6363,
      "birik": 6364,
      "edward": 6365,
      "##ary": 6366,
      "dub": 6367,
      "adının": 6368,
      "##ai": 6369,
      "wwe": 6370,
      "##iti": 6371,
      "##ovi": 6372,
      "ortasında": 6373,
      "şampiyonluk": 6374,
      "tatlı": 6375,
      "göreve": 6376,
      "güneydoğu": 6377,
      "##ısındaki": 6378,
      "christ": 6379,
      "kongre": 6380,
      "bankası": 6381,
      "disk": 6382,
      "cephesi": 6383,
      "koyu": 6384,
      "sus": 6385,
      "konuk": 6386,
      "bölgedeki": 6387,
      "afgan": 6388,
      "hakkındaki": 6389,
      "frek": 6390,
      "bağımsızlık": 6391,
      "ov": 6392,
      "katılımcı": 6393,
      "##lıklar": 6394,
      "yönetilen": 6395,
      "arş": 6396,
      "paralel": 6397,
      "rok": 6398,
      "önüne": 6399,
      "merkezinde": 6400,
      "makedonya": 6401,
      "##dükten": 6402,
      "pozit": 6403,
      "nem": 6404,
      "##meli": 6405,
      "süresi": 6406,
      "açıklandı": 6407,
      "##abilen": 6408,
      "tabi": 6409,
      "saniye": 6410,
      "nesil": 6411,
      "bosna": 6412,
      "##pi": 6413,
      "cumhurbaşkanlığı": 6414,
      "acı": 6415,
      "karanlık": 6416,
      "mercek": 6417,
      "sün": 6418,
      "##ulması": 6419,
      "yenilen": 6420,
      "ürünleri": 6421,
      "geliştirilen": 6422,
      "ırk": 6423,
      "yönt": 6424,
      "##ota": 6425,
      "zira": 6426,
      "bez": 6427,
      "emin": 6428,
      "akra": 6429,
      "uyan": 6430,
      "artış": 6431,
      "taşıma": 6432,
      "kaydetti": 6433,
      "uzat": 6434,
      "ilişkiler": 6435,
      "##etiyle": 6436,
      "##bilen": 6437,
      "göstermiştir": 6438,
      "##fan": 6439,
      "##cat": 6440,
      "##mektir": 6441,
      "protein": 6442,
      "gövde": 6443,
      "cema": 6444,
      "terör": 6445,
      "aray": 6446,
      "bölgesinin": 6447,
      "durumlarda": 6448,
      "rekabet": 6449,
      "vez": 6450,
      "##makla": 6451,
      "yağış": 6452,
      "tüy": 6453,
      "gazetesi": 6454,
      "kapan": 6455,
      "değişim": 6456,
      "##ordin": 6457,
      "uzanan": 6458,
      "füz": 6459,
      "molekül": 6460,
      "yans": 6461,
      "baskın": 6462,
      "esin": 6463,
      "yazmıştır": 6464,
      "yazılmıştır": 6465,
      "sürüldü": 6466,
      "dayalı": 6467,
      "buff": 6468,
      "türleri": 6469,
      "##bs": 6470,
      "denilen": 6471,
      "kendilerini": 6472,
      "unvanı": 6473,
      "anahtar": 6474,
      "tepk": 6475,
      "##oyu": 6476,
      "oyuncular": 6477,
      "dayanan": 6478,
      "ışın": 6479,
      "nesn": 6480,
      "dosya": 6481,
      "yitir": 6482,
      "##ds": 6483,
      "tapın": 6484,
      "altıncı": 6485,
      "litvanya": 6486,
      "##yu": 6487,
      "müze": 6488,
      "##opolis": 6489,
      "emr": 6490,
      "##bor": 6491,
      "##bilim": 6492,
      "ettiğini": 6493,
      "kalır": 6494,
      "sırt": 6495,
      "gerekç": 6496,
      "aya": 6497,
      "ömer": 6498,
      "##astik": 6499,
      "music": 6500,
      "evi": 6501,
      "idare": 6502,
      "kısmen": 6503,
      "suik": 6504,
      "köylü": 6505,
      "atmos": 6506,
      "ortod": 6507,
      "tanınmış": 6508,
      "danışman": 6509,
      "bölümünü": 6510,
      "##eryal": 6511,
      "ayrılmıştır": 6512,
      "senaryo": 6513,
      "karşılaştı": 6514,
      "kuram": 6515,
      "mük": 6516,
      "##rika": 6517,
      "paket": 6518,
      "otomatik": 6519,
      "kaptan": 6520,
      "imzal": 6521,
      "##tek": 6522,
      "##acaktır": 6523,
      "ölümüne": 6524,
      "bayra": 6525,
      "zih": 6526,
      "attığı": 6527,
      "göçmen": 6528,
      "binası": 6529,
      "cenaz": 6530,
      "yenilg": 6531,
      "gil": 6532,
      "##sem": 6533,
      "belde": 6534,
      "ederler": 6535,
      "birinin": 6536,
      "potansiyel": 6537,
      "selim": 6538,
      "##igh": 6539,
      "##rian": 6540,
      "cat": 6541,
      "tatar": 6542,
      "##das": 6543,
      "olduktan": 6544,
      "derecede": 6545,
      "yiye": 6546,
      "komplek": 6547,
      "##ğunda": 6548,
      "ulaşım": 6549,
      "reaksiyon": 6550,
      "ege": 6551,
      "yapılması": 6552,
      "diplom": 6553,
      "zehir": 6554,
      "##cas": 6555,
      "##hel": 6556,
      "maçın": 6557,
      "gazian": 6558,
      "trt": 6559,
      "##antaj": 6560,
      "dizide": 6561,
      "yayımladı": 6562,
      "aileden": 6563,
      "tasvir": 6564,
      "gaziantep": 6565,
      "okum": 6566,
      "bronz": 6567,
      "##low": 6568,
      "işletim": 6569,
      "##zan": 6570,
      "akın": 6571,
      "çekim": 6572,
      "meyve": 6573,
      "kısmında": 6574,
      "gor": 6575,
      "alet": 6576,
      "nic": 6577,
      "cinayet": 6578,
      "kısmını": 6579,
      "##ikleri": 6580,
      "sas": 6581,
      "hasar": 6582,
      "kimi": 6583,
      "pul": 6584,
      "beyin": 6585,
      "uzaklıkta": 6586,
      "piş": 6587,
      "koordin": 6588,
      "i̇d": 6589,
      "evinde": 6590,
      "##unk": 6591,
      "nitelendir": 6592,
      "uzunluğunda": 6593,
      "vergi": 6594,
      "##erv": 6595,
      "kamera": 6596,
      "çalışmalarını": 6597,
      "yaşamış": 6598,
      "güçlendir": 6599,
      "ortodoks": 6600,
      "kurban": 6601,
      "araştırmalar": 6602,
      "##ben": 6603,
      "uygulan": 6604,
      "##bola": 6605,
      "öv": 6606,
      "üste": 6607,
      "##lez": 6608,
      "hayran": 6609,
      "yöntemi": 6610,
      "°c": 6611,
      "##ns": 6612,
      "##tak": 6613,
      "##iki": 6614,
      "dey": 6615,
      "##alandır": 6616,
      "editör": 6617,
      "jim": 6618,
      "##çileri": 6619,
      "edirne": 6620,
      "dolaş": 6621,
      "##ılmaya": 6622,
      "sonuçları": 6623,
      "bölgelerde": 6624,
      "##batısında": 6625,
      "toprakları": 6626,
      "##sky": 6627,
      "ceb": 6628,
      "ölü": 6629,
      "mitoloj": 6630,
      "partinin": 6631,
      "servis": 6632,
      "olmadı": 6633,
      "darbe": 6634,
      "kanser": 6635,
      "donanması": 6636,
      "##lub": 6637,
      "çağı": 6638,
      "sürümü": 6639,
      "##oth": 6640,
      "##dt": 6641,
      "inti": 6642,
      "ondan": 6643,
      "mid": 6644,
      "tour": 6645,
      "okun": 6646,
      "yürür": 6647,
      "eskiden": 6648,
      "yılların": 6649,
      "i̇lçe": 6650,
      "##liğindeki": 6651,
      "yerlerde": 6652,
      "varlığı": 6653,
      "pin": 6654,
      "mali": 6655,
      "otel": 6656,
      "öyk": 6657,
      "komisyonu": 6658,
      "kazakistan": 6659,
      "biriydi": 6660,
      "yla": 6661,
      "##tim": 6662,
      "angel": 6663,
      "mekaniz": 6664,
      "mühendisliği": 6665,
      "##nak": 6666,
      "##okulu": 6667,
      "yarg": 6668,
      "ülkesi": 6669,
      "##usuf": 6670,
      "##veriş": 6671,
      "alanları": 6672,
      "kristal": 6673,
      "kendilerine": 6674,
      "nef": 6675,
      "mevki": 6676,
      "tarihlerinde": 6677,
      "##uyucu": 6678,
      "özgürlük": 6679,
      "döner": 6680,
      "aslan": 6681,
      "kıta": 6682,
      "##lenebilir": 6683,
      "görünt": 6684,
      "verg": 6685,
      "nar": 6686,
      "ölen": 6687,
      "##arş": 6688,
      "olmasını": 6689,
      "oksi": 6690,
      "eserler": 6691,
      "karakterini": 6692,
      "tabanlı": 6693,
      "terimi": 6694,
      "##ûm": 6695,
      "turda": 6696,
      "uc": 6697,
      "uydu": 6698,
      "inanç": 6699,
      "yumurta": 6700,
      "##abilecek": 6701,
      "desteği": 6702,
      "antrenör": 6703,
      "sof": 6704,
      "marka": 6705,
      "##cal": 6706,
      "şunlardır": 6707,
      "şarkıyı": 6708,
      "yapıldığı": 6709,
      "sebebi": 6710,
      "kastam": 6711,
      "##sul": 6712,
      "kurduğu": 6713,
      "##türk": 6714,
      "coğrafi": 6715,
      "grafik": 6716,
      "genelinde": 6717,
      "iptal": 6718,
      "##cını": 6719,
      "kazandığı": 6720,
      "anlamı": 6721,
      "kalit": 6722,
      "belgesel": 6723,
      "##emedi": 6724,
      "##cılığını": 6725,
      "ebu": 6726,
      "zincir": 6727,
      "bakü": 6728,
      "##lal": 6729,
      "sscb": 6730,
      "gruplar": 6731,
      "kadınların": 6732,
      "milletvekilliği": 6733,
      "hür": 6734,
      "protok": 6735,
      "##dae": 6736,
      "##ón": 6737,
      "girer": 6738,
      "listesine": 6739,
      "manisa": 6740,
      "isp": 6741,
      "görevinden": 6742,
      "çekilen": 6743,
      "victor": 6744,
      "hom": 6745,
      "organize": 6746,
      "she": 6747,
      "müzikal": 6748,
      "taz": 6749,
      "sığ": 6750,
      "tuğ": 6751,
      "bakır": 6752,
      "yumuş": 6753,
      "dolu": 6754,
      "cinsiyet": 6755,
      "kıl": 6756,
      "##vel": 6757,
      "uzunluğu": 6758,
      "kentin": 6759,
      "yusuf": 6760,
      "lad": 6761,
      "komünün": 6762,
      "kahveren": 6763,
      "bakış": 6764,
      "##acağını": 6765,
      "arasına": 6766,
      "rit": 6767,
      "##lege": 6768,
      "anlayış": 6769,
      "tanıştı": 6770,
      "tro": 6771,
      "satışa": 6772,
      "komündür": 6773,
      "##aten": 6774,
      "##kia": 6775,
      "muhalef": 6776,
      "sömür": 6777,
      "sunucu": 6778,
      "hu": 6779,
      "aylarında": 6780,
      "alay": 6781,
      "başı": 6782,
      "korku": 6783,
      "golünü": 6784,
      "by": 6785,
      "kişilerin": 6786,
      "##lerek": 6787,
      "sanatlar": 6788,
      "oğu": 6789,
      "plas": 6790,
      "##ağın": 6791,
      "kırık": 6792,
      "##yaspor": 6793,
      "elektro": 6794,
      "arkadaşları": 6795,
      "layık": 6796,
      "teorisi": 6797,
      "##well": 6798,
      "süreci": 6799,
      "ilişkileri": 6800,
      "##estr": 6801,
      "buluş": 6802,
      "dönen": 6803,
      "içermektedir": 6804,
      "salonu": 6805,
      "üstünde": 6806,
      "tutar": 6807,
      "başarısı": 6808,
      "eğlence": 6809,
      "enfek": 6810,
      "miz": 6811,
      "##vo": 6812,
      "topra": 6813,
      "uğram": 6814,
      "disip": 6815,
      "şe": 6816,
      "##ydu": 6817,
      "çab": 6818,
      "jer": 6819,
      "zek": 6820,
      "hızı": 6821,
      "duygu": 6822,
      "bebek": 6823,
      "##zo": 6824,
      "takımda": 6825,
      "##vd": 6826,
      "stil": 6827,
      "kaybol": 6828,
      "fan": 6829,
      "nesne": 6830,
      "vali": 6831,
      "##rem": 6832,
      "##ikler": 6833,
      "yetişkin": 6834,
      "jun": 6835,
      "tarihçi": 6836,
      "gösterilmiştir": 6837,
      "smith": 6838,
      "yarısında": 6839,
      "tanınır": 6840,
      "key": 6841,
      "##irken": 6842,
      "kaleme": 6843,
      "raf": 6844,
      "##amin": 6845,
      "liberal": 6846,
      "arama": 6847,
      "keşif": 6848,
      "erdi": 6849,
      "görünüm": 6850,
      "just": 6851,
      "##rey": 6852,
      "##üce": 6853,
      "bulan": 6854,
      "hastalığı": 6855,
      "insanları": 6856,
      "spek": 6857,
      "yugoslavya": 6858,
      "kre": 6859,
      "##mini": 6860,
      "kariyeri": 6861,
      "protokol": 6862,
      "edebil": 6863,
      "sıradan": 6864,
      "soru": 6865,
      "##ıf": 6866,
      "##vey": 6867,
      "hariç": 6868,
      "manchester": 6869,
      "sonraları": 6870,
      "açılış": 6871,
      "şarkıları": 6872,
      "deprem": 6873,
      "iyon": 6874,
      "##ble": 6875,
      "sınav": 6876,
      "cd": 6877,
      "##ier": 6878,
      "##muştu": 6879,
      "kırk": 6880,
      "sayf": 6881,
      "insanın": 6882,
      "bulur": 6883,
      "takıma": 6884,
      "unut": 6885,
      "bern": 6886,
      "##izasyon": 6887,
      "kitabında": 6888,
      "mol": 6889,
      "özbek": 6890,
      "##hon": 6891,
      "mimari": 6892,
      "log": 6893,
      "maz": 6894,
      "if": 6895,
      "##ciğer": 6896,
      "dışındaki": 6897,
      "mahkeme": 6898,
      "yerleşti": 6899,
      "zorunlu": 6900,
      "hükümeti": 6901,
      "abdullah": 6902,
      "yun": 6903,
      "doğrult": 6904,
      "caz": 6905,
      "##lesinde": 6906,
      "teker": 6907,
      "başlattı": 6908,
      "##ty": 6909,
      "##çağı": 6910,
      "##antum": 6911,
      "çağır": 6912,
      "usta": 6913,
      "hazırlanan": 6914,
      "alanlarda": 6915,
      "sorgu": 6916,
      "##je": 6917,
      "yenerek": 6918,
      "oğl": 6919,
      "hon": 6920,
      "olmaktadır": 6921,
      "##omen": 6922,
      "avcı": 6923,
      "köyünde": 6924,
      "statüsü": 6925,
      "##ete": 6926,
      "kitle": 6927,
      "harekât": 6928,
      "yaşamını": 6929,
      "çalışmıştır": 6930,
      "turu": 6931,
      "buradan": 6932,
      "kastamonu": 6933,
      "çeyrek": 6934,
      "kade": 6935,
      "kaldığı": 6936,
      "ağrı": 6937,
      "güçleri": 6938,
      "##ins": 6939,
      "direniş": 6940,
      "##mara": 6941,
      "anlatır": 6942,
      "##uf": 6943,
      "sayfa": 6944,
      "şehirdeki": 6945,
      "mary": 6946,
      "pom": 6947,
      "değerli": 6948,
      "tanış": 6949,
      "görülmüştür": 6950,
      "kazanarak": 6951,
      "ref": 6952,
      "atmosfer": 6953,
      "yaptıkları": 6954,
      "##iner": 6955,
      "kuruluşu": 6956,
      "gördüğü": 6957,
      "amb": 6958,
      "oğuz": 6959,
      "##gs": 6960,
      "karada": 6961,
      "öte": 6962,
      "##urdu": 6963,
      "maliyet": 6964,
      "him": 6965,
      "arda": 6966,
      "nitelik": 6967,
      "vla": 6968,
      "dre": 6969,
      "malat": 6970,
      "vii": 6971,
      "olayı": 6972,
      "##esco": 6973,
      "##cht": 6974,
      "orhan": 6975,
      "işçi": 6976,
      "kontrolü": 6977,
      "cup": 6978,
      "trak": 6979,
      "şekli": 6980,
      "alana": 6981,
      "konservat": 6982,
      "konak": 6983,
      "bağış": 6984,
      "sekreter": 6985,
      "les": 6986,
      "##öly": 6987,
      "doğmuştur": 6988,
      "##avar": 6989,
      "##öğret": 6990,
      "##çilerin": 6991,
      "ölçek": 6992,
      "ps": 6993,
      "mühendislik": 6994,
      "allah": 6995,
      "hata": 6996,
      "##doğusunda": 6997,
      "##barat": 6998,
      "dağlık": 6999,
      "muhafız": 7000,
      "dilleri": 7001,
      "arist": 7002,
      "sayılabilir": 7003,
      "mümkündür": 7004,
      "forvet": 7005,
      "silin": 7006,
      "entertain": 7007,
      "##ğıt": 7008,
      "##ube": 7009,
      "çukur": 7010,
      "nan": 7011,
      "##çılık": 7012,
      "getiren": 7013,
      "savaşta": 7014,
      "itir": 7015,
      "bağlantılı": 7016,
      "ted": 7017,
      "yapılacak": 7018,
      "uygulam": 7019,
      "çıkardığı": 7020,
      "kıyas": 7021,
      "halkının": 7022,
      "yükselen": 7023,
      "inf": 7024,
      "onlar": 7025,
      "işe": 7026,
      "mezhe": 7027,
      "seçil": 7028,
      "istatistik": 7029,
      "euro": 7030,
      "sağlaya": 7031,
      "##win": 7032,
      "genetik": 7033,
      "harry": 7034,
      "inceleme": 7035,
      "##likler": 7036,
      "yağmur": 7037,
      "kaza": 7038,
      "formasını": 7039,
      "taraftar": 7040,
      "sadraz": 7041,
      "yetersiz": 7042,
      "ağırlıklı": 7043,
      "##edeki": 7044,
      "sözleri": 7045,
      "rüzg": 7046,
      "bireysel": 7047,
      "dönemlerde": 7048,
      "##kaya": 7049,
      "yardımıyla": 7050,
      "kalmış": 7051,
      "kola": 7052,
      "savaşa": 7053,
      "beğen": 7054,
      "müsabaka": 7055,
      "##uta": 7056,
      "tepe": 7057,
      "kapsayan": 7058,
      "pozitif": 7059,
      "rakam": 7060,
      "##luğun": 7061,
      "yiyecek": 7062,
      "sakin": 7063,
      "gur": 7064,
      "kopya": 7065,
      "peş": 7066,
      "##ysa": 7067,
      "aşağıda": 7068,
      "entertainment": 7069,
      "peygam": 7070,
      "gösterdiği": 7071,
      "duyar": 7072,
      "nov": 7073,
      "toplama": 7074,
      "buffy": 7075,
      "tapınak": 7076,
      "##hum": 7077,
      "##uzu": 7078,
      "##pınar": 7079,
      "yerinde": 7080,
      "bileşen": 7081,
      "dakikada": 7082,
      "bulunmaktaydı": 7083,
      "hepsi": 7084,
      "fabrika": 7085,
      "alev": 7086,
      "aylık": 7087,
      "##ografik": 7088,
      "kanunu": 7089,
      "##iyen": 7090,
      "senarist": 7091,
      "toz": 7092,
      "onunla": 7093,
      "dalg": 7094,
      "başlayarak": 7095,
      "sığın": 7096,
      "yapımcısı": 7097,
      "andro": 7098,
      "bölgelerinde": 7099,
      "dilinde": 7100,
      "raw": 7101,
      "borç": 7102,
      "##lıkları": 7103,
      "buzul": 7104,
      "##gor": 7105,
      "hizmete": 7106,
      "olsun": 7107,
      "kültürü": 7108,
      "oluşturmak": 7109,
      "frekans": 7110,
      "##mik": 7111,
      "birini": 7112,
      "zelanda": 7113,
      "karşılan": 7114,
      "kalkınma": 7115,
      "mezunudur": 7116,
      "dağılımı": 7117,
      "emp": 7118,
      "kule": 7119,
      "arazi": 7120,
      "geomet": 7121,
      "asyalı": 7122,
      "rolünü": 7123,
      "sıfır": 7124,
      "##paz": 7125,
      "##ağında": 7126,
      "##tikten": 7127,
      "##şe": 7128,
      "maria": 7129,
      "hed": 7130,
      "##ted": 7131,
      "olmayı": 7132,
      "çalıştığı": 7133,
      "fah": 7134,
      "evrim": 7135,
      "##elle": 7136,
      "daniel": 7137,
      "boyutlu": 7138,
      "nec": 7139,
      "premi": 7140,
      "##isiz": 7141,
      "olasılık": 7142,
      "kaynakları": 7143,
      "##usundaki": 7144,
      "##tian": 7145,
      "komutasındaki": 7146,
      "kin": 7147,
      "işbirliği": 7148,
      "eşya": 7149,
      "vadisi": 7150,
      "adas": 7151,
      "çözün": 7152,
      "sum": 7153,
      "yarışı": 7154,
      "galip": 7155,
      "anlaşması": 7156,
      "hizmeti": 7157,
      "yanıt": 7158,
      "karl": 7159,
      "soruştur": 7160,
      "albümüdür": 7161,
      "rep": 7162,
      "##ella": 7163,
      "tac": 7164,
      "ilçedir": 7165,
      "dra": 7166,
      "varlığını": 7167,
      "kus": 7168,
      "arasındadır": 7169,
      "##maması": 7170,
      "ate": 7171,
      "müdahale": 7172,
      "##mun": 7173,
      "##ike": 7174,
      "denge": 7175,
      "bayan": 7176,
      "##ileş": 7177,
      "##ican": 7178,
      "kişiden": 7179,
      "eyaletinin": 7180,
      "##madığı": 7181,
      "tev": 7182,
      "yaralan": 7183,
      "katman": 7184,
      "buhar": 7185,
      "karşıtı": 7186,
      "ucu": 7187,
      "karşıya": 7188,
      "covid": 7189,
      "##diz": 7190,
      "düşen": 7191,
      "ağız": 7192,
      "lor": 7193,
      "küme": 7194,
      "yüzölçüm": 7195,
      "##mekle": 7196,
      "gönüllü": 7197,
      "kuantum": 7198,
      "wat": 7199,
      "başladılar": 7200,
      "ras": 7201,
      "##ae": 7202,
      "##usta": 7203,
      "##yer": 7204,
      "başlanmıştır": 7205,
      "oluşturmaktadır": 7206,
      "seferi": 7207,
      "nişan": 7208,
      "kosova": 7209,
      "münih": 7210,
      "sağlamıştır": 7211,
      "vilayet": 7212,
      "lüb": 7213,
      "kriz": 7214,
      "yarışmada": 7215,
      "tavs": 7216,
      "##gas": 7217,
      "satan": 7218,
      "ts": 7219,
      "##istler": 7220,
      "ittifak": 7221,
      "cilt": 7222,
      "jüri": 7223,
      "##mat": 7224,
      "ilham": 7225,
      "##derek": 7226,
      "##eddin": 7227,
      "tepki": 7228,
      "kitabın": 7229,
      "diğerleri": 7230,
      "hayata": 7231,
      "ulaşan": 7232,
      "##ilip": 7233,
      "univers": 7234,
      "##şev": 7235,
      "tokyo": 7236,
      "##alif": 7237,
      "ang": 7238,
      "imparatorluk": 7239,
      "##asız": 7240,
      "akademisyen": 7241,
      "##ue": 7242,
      "fal": 7243,
      "##tanı": 7244,
      "değiştirildi": 7245,
      "bom": 7246,
      "volkan": 7247,
      "harp": 7248,
      "gösterime": 7249,
      "cüm": 7250,
      "##paşa": 7251,
      "##illi": 7252,
      "yedinci": 7253,
      "##gn": 7254,
      "olacağını": 7255,
      "işletme": 7256,
      "##düz": 7257,
      "edebiyatı": 7258,
      "pier": 7259,
      "ce": 7260,
      "sundu": 7261,
      "eleman": 7262,
      "yıldırım": 7263,
      "##bal": 7264,
      "bulgu": 7265,
      "ülkelerin": 7266,
      "##laz": 7267,
      "tabak": 7268,
      "live": 7269,
      "gab": 7270,
      "binlerce": 7271,
      "bül": 7272,
      "kolu": 7273,
      "örneği": 7274,
      "##cinsel": 7275,
      "ayrım": 7276,
      "akars": 7277,
      "makin": 7278,
      "olayları": 7279,
      "champ": 7280,
      "skor": 7281,
      "duruma": 7282,
      "drama": 7283,
      "şiddetli": 7284,
      "ahş": 7285,
      "mahkûm": 7286,
      "##uşu": 7287,
      "albümünü": 7288,
      "beklen": 7289,
      "filip": 7290,
      "intihar": 7291,
      "olası": 7292,
      "içerik": 7293,
      "kuyruk": 7294,
      "zırhlı": 7295,
      "zaten": 7296,
      "dig": 7297,
      "vererek": 7298,
      "sonsuz": 7299,
      "şef": 7300,
      "ron": 7301,
      "dersleri": 7302,
      "##arta": 7303,
      "##osh": 7304,
      "fikr": 7305,
      "çele": 7306,
      "kullanılması": 7307,
      "ayrılan": 7308,
      "i̇şçi": 7309,
      "kafkasya": 7310,
      "win": 7311,
      "viet": 7312,
      "hun": 7313,
      "boya": 7314,
      "gönderdi": 7315,
      "kısalt": 7316,
      "afganistan": 7317,
      "yönel": 7318,
      "albümleri": 7319,
      "sistemin": 7320,
      "##yl": 7321,
      "anılan": 7322,
      "ima": 7323,
      "mimarlık": 7324,
      "sadrazam": 7325,
      "düzenlendi": 7326,
      "istik": 7327,
      "eşcinsel": 7328,
      "##ozof": 7329,
      "çeken": 7330,
      "##lif": 7331,
      "iyileştir": 7332,
      "görünür": 7333,
      "kahverengi": 7334,
      "akşam": 7335,
      "##dio": 7336,
      "geçmi": 7337,
      "##ılıyor": 7338,
      "mutlak": 7339,
      "mans": 7340,
      "şehrinin": 7341,
      "basınç": 7342,
      "kaymak": 7343,
      "akıllı": 7344,
      "çocuğ": 7345,
      "öğrencisi": 7346,
      "yönetiminde": 7347,
      "lez": 7348,
      "pam": 7349,
      "##ılmaz": 7350,
      "geriye": 7351,
      "aşık": 7352,
      "maksim": 7353,
      "##sis": 7354,
      "##tc": 7355,
      "ani": 7356,
      "resmen": 7357,
      "alınarak": 7358,
      "istek": 7359,
      "ran": 7360,
      "##dün": 7361,
      "vefat": 7362,
      "##wor": 7363,
      "yöre": 7364,
      "patr": 7365,
      "değişikliğinden": 7366,
      "vis": 7367,
      "vermeye": 7368,
      "atıf": 7369,
      "konuda": 7370,
      "##drom": 7371,
      "edilerek": 7372,
      "mekanik": 7373,
      "element": 7374,
      "##kırı": 7375,
      "mih": 7376,
      "##masıdır": 7377,
      "##ğeri": 7378,
      "yasası": 7379,
      "gerçekleştirildi": 7380,
      "marmara": 7381,
      "olmuştu": 7382,
      "deri": 7383,
      "kulak": 7384,
      "konstantinopolis": 7385,
      "lige": 7386,
      "animasyon": 7387,
      "öt": 7388,
      "nobel": 7389,
      "prix": 7390,
      "bm": 7391,
      "mükem": 7392,
      "indi": 7393,
      "takdir": 7394,
      "alıp": 7395,
      "gemisi": 7396,
      "ela": 7397,
      "##sus": 7398,
      "##gini": 7399,
      "zamana": 7400,
      "bırakıldı": 7401,
      "neg": 7402,
      "tasarımı": 7403,
      "veli": 7404,
      "sakarya": 7405,
      "##oma": 7406,
      "yoz": 7407,
      "kıya": 7408,
      "pasifik": 7409,
      "##ix": 7410,
      "yaşındaki": 7411,
      "ayrılarak": 7412,
      "kalıcı": 7413,
      "##hak": 7414,
      "coğrafya": 7415,
      "suikast": 7416,
      "yürüyüş": 7417,
      "ahşap": 7418,
      "mesle": 7419,
      "##eng": 7420,
      "##ville": 7421,
      "##ikat": 7422,
      "##wer": 7423,
      "kuman": 7424,
      "bob": 7425,
      "geçerli": 7426,
      "ikna": 7427,
      "devrimci": 7428,
      "eta": 7429,
      "futbola": 7430,
      "dah": 7431,
      "endiş": 7432,
      "gelişim": 7433,
      "çocuklar": 7434,
      "sonuçlar": 7435,
      "türb": 7436,
      "kaçın": 7437,
      "belediyespor": 7438,
      "anlatı": 7439,
      "orkestr": 7440,
      "üyeli": 7441,
      "besteci": 7442,
      "out": 7443,
      "##iber": 7444,
      "hâlen": 7445,
      "filozof": 7446,
      "dönüşüm": 7447,
      "moda": 7448,
      "miras": 7449,
      "doğrultusunda": 7450,
      "##heim": 7451,
      "chica": 7452,
      "virüs": 7453,
      "çelebi": 7454,
      "ulu": 7455,
      "##likte": 7456,
      "şarkılar": 7457,
      "tokat": 7458,
      "##ardı": 7459,
      "kütah": 7460,
      "##aspor": 7461,
      "oldular": 7462,
      "yüzyıldan": 7463,
      "programında": 7464,
      "##oğu": 7465,
      "sayede": 7466,
      "açıkça": 7467,
      "matt": 7468,
      "##abilmektedir": 7469,
      "sendrom": 7470,
      "##ctor": 7471,
      "##ilmesiyle": 7472,
      "şaş": 7473,
      "##uda": 7474,
      "medres": 7475,
      "##izmin": 7476,
      "aşir": 7477,
      "sözü": 7478,
      "club": 7479,
      "pav": 7480,
      "##hem": 7481,
      "trabzonspor": 7482,
      "i̇skoçya": 7483,
      "kongresi": 7484,
      "personel": 7485,
      "##ridge": 7486,
      "tarif": 7487,
      "stalin": 7488,
      "dokun": 7489,
      "pasap": 7490,
      "##onyalı": 7491,
      "nokia": 7492,
      "gerçekten": 7493,
      "açılmıştır": 7494,
      "pakistan": 7495,
      "alkol": 7496,
      "tarihindeki": 7497,
      "harekete": 7498,
      "chicago": 7499,
      "sl": 7500,
      "##aska": 7501,
      "finali": 7502,
      "soylu": 7503,
      "metrop": 7504,
      "direktörü": 7505,
      "statüs": 7506,
      "taşır": 7507,
      "lenin": 7508,
      "##ua": 7509,
      "ikiye": 7510,
      "işg": 7511,
      "yürüttü": 7512,
      "sorunları": 7513,
      "uçağı": 7514,
      "şem": 7515,
      "i̇bran": 7516,
      "familyasından": 7517,
      "kesi": 7518,
      "ret": 7519,
      "##uc": 7520,
      "böcek": 7521,
      "##ges": 7522,
      "johan": 7523,
      "kariyerinin": 7524,
      "##öğretim": 7525,
      "##ülmektedir": 7526,
      "tapına": 7527,
      "rem": 7528,
      "##dis": 7529,
      "##ıdır": 7530,
      "##ülmüş": 7531,
      "philip": 7532,
      "##lamaları": 7533,
      "azın": 7534,
      "##cağına": 7535,
      "grupları": 7536,
      "##steri": 7537,
      "##abeth": 7538,
      "##ansa": 7539,
      "##luğuna": 7540,
      "i̇ntern": 7541,
      "##ms": 7542,
      "##çiliği": 7543,
      "karşılıklı": 7544,
      "yılmaz": 7545,
      "mekte": 7546,
      "kelimesi": 7547,
      "düzeyde": 7548,
      "gücünü": 7549,
      "kars": 7550,
      "öncü": 7551,
      "##zığ": 7552,
      "fol": 7553,
      "##ezya": 7554,
      "söylemiştir": 7555,
      "huz": 7556,
      "etkileri": 7557,
      "körfezi": 7558,
      "uyum": 7559,
      "albert": 7560,
      "##ace": 7561,
      "belirtir": 7562,
      "pres": 7563,
      "kıv": 7564,
      "cemiyeti": 7565,
      "koleji": 7566,
      "yede": 7567,
      "höy": 7568,
      "##wig": 7569,
      "##diki": 7570,
      "hizmetleri": 7571,
      "kapsamlı": 7572,
      "arşiv": 7573,
      "harit": 7574,
      "oranda": 7575,
      "cy": 7576,
      "sinan": 7577,
      "##hisar": 7578,
      "##rü": 7579,
      "kemik": 7580,
      "compan": 7581,
      "filmleri": 7582,
      "android": 7583,
      "meg": 7584,
      "tarihine": 7585,
      "fırlat": 7586,
      "temas": 7587,
      "kömür": 7588,
      "##ebe": 7589,
      "birbirinden": 7590,
      "laboratuvar": 7591,
      "şanlı": 7592,
      "##oph": 7593,
      "oyuna": 7594,
      "hakimiyet": 7595,
      "##ope": 7596,
      "##ilebil": 7597,
      "stre": 7598,
      "hoca": 7599,
      "mini": 7600,
      "çalışmaktadır": 7601,
      "gelene": 7602,
      "andr": 7603,
      "deplas": 7604,
      "hırvatistan": 7605,
      "kadının": 7606,
      "inde": 7607,
      "kurş": 7608,
      "##estra": 7609,
      "parçasıdır": 7610,
      "metro": 7611,
      "vietnam": 7612,
      "berk": 7613,
      "bağdat": 7614,
      "odası": 7615,
      "hur": 7616,
      "pasaport": 7617,
      "##asal": 7618,
      "##luğa": 7619,
      "##ings": 7620,
      "ücretsiz": 7621,
      "arasından": 7622,
      "bugüne": 7623,
      "değişen": 7624,
      "şehre": 7625,
      "yaşamı": 7626,
      "isimler": 7627,
      "parçaları": 7628,
      "ölçüm": 7629,
      "tıbbi": 7630,
      "buradaki": 7631,
      "yapay": 7632,
      "biyolojik": 7633,
      "kolej": 7634,
      "şifre": 7635,
      "##pen": 7636,
      "tayin": 7637,
      "##uyan": 7638,
      "piyano": 7639,
      "##ios": 7640,
      "bulunmuş": 7641,
      "göğ": 7642,
      "##ax": 7643,
      "detay": 7644,
      "lav": 7645,
      "kullanı": 7646,
      "ortalarında": 7647,
      "savaşları": 7648,
      "mezarlığı": 7649,
      "oyunda": 7650,
      "denem": 7651,
      "albümünde": 7652,
      "williams": 7653,
      "dvd": 7654,
      "düzenlen": 7655,
      "vermiş": 7656,
      "altay": 7657,
      "yardımcılığı": 7658,
      "##imal": 7659,
      "donanım": 7660,
      "savunu": 7661,
      "##leyi": 7662,
      "avrupalı": 7663,
      "savaştan": 7664,
      "##ria": 7665,
      "işlemi": 7666,
      "mantık": 7667,
      "##ito": 7668,
      "##lesini": 7669,
      "anlatan": 7670,
      "afrikan": 7671,
      "ky": 7672,
      "kutup": 7673,
      "pist": 7674,
      "##usunu": 7675,
      "devir": 7676,
      "görülebilir": 7677,
      "kavramı": 7678,
      "netic": 7679,
      "materyal": 7680,
      "uğr": 7681,
      "##kal": 7682,
      "inş": 7683,
      "görüşme": 7684,
      "##line": 7685,
      "bilimi": 7686,
      "##kov": 7687,
      "##ado": 7688,
      "üstlenmiştir": 7689,
      "olmasından": 7690,
      "yayınları": 7691,
      "kanalında": 7692,
      "green": 7693,
      "sekreteri": 7694,
      "türkler": 7695,
      "##lüğünde": 7696,
      "uygulaması": 7697,
      "bellek": 7698,
      "avantaj": 7699,
      "##ery": 7700,
      "helen": 7701,
      "yapıt": 7702,
      "cav": 7703,
      "dum": 7704,
      "ödüllendir": 7705,
      "##oper": 7706,
      "liga": 7707,
      "##okrat": 7708,
      "yatak": 7709,
      "başkanlığını": 7710,
      "üçlü": 7711,
      "çekirde": 7712,
      "##onsor": 7713,
      "cle": 7714,
      "##dip": 7715,
      "seçimi": 7716,
      "ilerleyen": 7717,
      "##iyesi": 7718,
      "##tia": 7719,
      "kırsal": 7720,
      "roket": 7721,
      "buraya": 7722,
      "sıkı": 7723,
      "bağlam": 7724,
      "spe": 7725,
      "giymektedir": 7726,
      "gerçekleştirdi": 7727,
      "##ibe": 7728,
      "optik": 7729,
      "i̇mparatoru": 7730,
      "otobüs": 7731,
      "erdoğan": 7732,
      "##ilmez": 7733,
      "monte": 7734,
      "gri": 7735,
      "albümünün": 7736,
      "alacak": 7737,
      "kalabalık": 7738,
      "format": 7739,
      "yeme": 7740,
      "meşhur": 7741,
      "##ıntılı": 7742,
      "##ct": 7743,
      "##ünc": 7744,
      "keskin": 7745,
      "##ost": 7746,
      "national": 7747,
      "kimlik": 7748,
      "doku": 7749,
      "international": 7750,
      "gerekçesiyle": 7751,
      "##veti": 7752,
      "##irt": 7753,
      "anlaşmaz": 7754,
      "rüzgâr": 7755,
      "mükemmel": 7756,
      "nil": 7757,
      "krom": 7758,
      "bunları": 7759,
      "dikkate": 7760,
      "aleksan": 7761,
      "deplasman": 7762,
      "##bahar": 7763,
      "malatya": 7764,
      "edebilir": 7765,
      "şimdiki": 7766,
      "kocaeli": 7767,
      "royal": 7768,
      "boşan": 7769,
      "sözcüğü": 7770,
      "gözet": 7771,
      "##lüğüne": 7772,
      "atmıştır": 7773,
      "şeyi": 7774,
      "tüc": 7775,
      "studi": 7776,
      "kütahya": 7777,
      "august": 7778,
      "##iral": 7779,
      "aşama": 7780,
      "bunlara": 7781,
      "##hr": 7782,
      "##bine": 7783,
      "##mond": 7784,
      "alması": 7785,
      "kurulması": 7786,
      "defans": 7787,
      "company": 7788,
      "işi": 7789,
      "öyle": 7790,
      "##esiydi": 7791,
      "yakınlarındaki": 7792,
      "afyon": 7793,
      "kişiye": 7794,
      "lık": 7795,
      "sonlarına": 7796,
      "##hol": 7797,
      "##eden": 7798,
      "canlandırdığı": 7799,
      "lok": 7800,
      "şap": 7801,
      "##cha": 7802,
      "##gah": 7803,
      "planı": 7804,
      "yoğunluğu": 7805,
      "scho": 7806,
      "chp": 7807,
      "prus": 7808,
      "karadağ": 7809,
      "clar": 7810,
      "konumunda": 7811,
      "okyanusu": 7812,
      "##sar": 7813,
      "##ayeti": 7814,
      "pep": 7815,
      "##şak": 7816,
      "mineral": 7817,
      "##row": 7818,
      "with": 7819,
      "ilçesinin": 7820,
      "yüzyıla": 7821,
      "holly": 7822,
      "gid": 7823,
      "theod": 7824,
      "sahneye": 7825,
      "sesi": 7826,
      "kullanıldığı": 7827,
      "üzüm": 7828,
      "nato": 7829,
      "##osa": 7830,
      "camp": 7831,
      "kong": 7832,
      "suudi": 7833,
      "eyaletine": 7834,
      "##olojisi": 7835,
      "kuvvetlerinin": 7836,
      "time": 7837,
      "kims": 7838,
      "saygı": 7839,
      "sponsor": 7840,
      "verim": 7841,
      "fox": 7842,
      "bağımsızlığını": 7843,
      "##hail": 7844,
      "ust": 7845,
      "bakter": 7846,
      "patlama": 7847,
      "puanla": 7848,
      "parmak": 7849,
      "besin": 7850,
      "etmeyi": 7851,
      "cezay": 7852,
      "##zat": 7853,
      "##izmi": 7854,
      "kullanılmaya": 7855,
      "değin": 7856,
      "bbc": 7857,
      "kaplı": 7858,
      "sanatçının": 7859,
      "pros": 7860,
      "yazma": 7861,
      "yumuşak": 7862,
      "düşünür": 7863,
      "nispet": 7864,
      "fırt": 7865,
      "##ülmesi": 7866,
      "iğ": 7867,
      "sertif": 7868,
      "##ografi": 7869,
      "i̇spanyolca": 7870,
      "##hip": 7871,
      "tecr": 7872,
      "##con": 7873,
      "ini": 7874,
      "sistemine": 7875,
      "insanı": 7876,
      "hic": 7877,
      "sto": 7878,
      "olağanüstü": 7879,
      "gereği": 7880,
      "##vari": 7881,
      "##ansiyon": 7882,
      "##diye": 7883,
      "askerleri": 7884,
      "kamer": 7885,
      "yıldızı": 7886,
      "tet": 7887,
      "tün": 7888,
      "seçilmiş": 7889,
      "fırsat": 7890,
      "yaparken": 7891,
      "araştırmacı": 7892,
      "biçimi": 7893,
      "alexander": 7894,
      "şanlıur": 7895,
      "filmler": 7896,
      "maddi": 7897,
      "i̇mparatorluk": 7898,
      "hidrojen": 7899,
      "kaş": 7900,
      "##lesine": 7901,
      "sunuldu": 7902,
      "tib": 7903,
      "termin": 7904,
      "uygulamaları": 7905,
      "##tanın": 7906,
      "hali": 7907,
      "lübnan": 7908,
      "bulunuyordu": 7909,
      "##gız": 7910,
      "gösterilen": 7911,
      "##usa": 7912,
      "cemaat": 7913,
      "##fen": 7914,
      "bölgeleri": 7915,
      "masa": 7916,
      "##ild": 7917,
      "şeb": 7918,
      "i̇m": 7919,
      "arabistan": 7920,
      "i̇çişleri": 7921,
      "cezayir": 7922,
      "usul": 7923,
      "##larus": 7924,
      "kuzeyde": 7925,
      "hill": 7926,
      "pic": 7927,
      "istasyonu": 7928,
      "tutul": 7929,
      "konuşan": 7930,
      "que": 7931,
      "zamanı": 7932,
      "gerilim": 7933,
      "süreçte": 7934,
      "##nin": 7935,
      "##hen": 7936,
      "haric": 7937,
      "finalinde": 7938,
      "##feder": 7939,
      "klibi": 7940,
      "yarımadası": 7941,
      "sans": 7942,
      "atış": 7943,
      "şöval": 7944,
      "hersek": 7945,
      "kraliçe": 7946,
      "##rit": 7947,
      "##lot": 7948,
      "halife": 7949,
      "anlamında": 7950,
      "filminin": 7951,
      "ülkeye": 7952,
      "vakıf": 7953,
      "scott": 7954,
      "##ting": 7955,
      "##ote": 7956,
      "ülkeleri": 7957,
      "tol": 7958,
      "kırgız": 7959,
      "##şim": 7960,
      "##üye": 7961,
      "koal": 7962,
      "bru": 7963,
      "kere": 7964,
      "misyon": 7965,
      "yuvar": 7966,
      "organik": 7967,
      "stratejik": 7968,
      "çatış": 7969,
      "biliş": 7970,
      "önemlidir": 7971,
      "veda": 7972,
      "enz": 7973,
      "reddetti": 7974,
      "yapımcılığını": 7975,
      "##eç": 7976,
      "dayanmaktadır": 7977,
      "arkasında": 7978,
      "yout": 7979,
      "timur": 7980,
      "kıyafet": 7981,
      "##dışı": 7982,
      "çıkarak": 7983,
      "yargılan": 7984,
      "tarihinden": 7985,
      "sevgil": 7986,
      "##rich": 7987,
      "##jer": 7988,
      "gelerek": 7989,
      "çerkes": 7990,
      "kazanmış": 7991,
      "umut": 7992,
      "kaba": 7993,
      "katılmış": 7994,
      "sergi": 7995,
      "diğeri": 7996,
      "dişi": 7997,
      "cisim": 7998,
      "peygamber": 7999,
      "aşkın": 8000,
      "##elerle": 8001,
      "brown": 8002,
      "bolşev": 8003,
      "madalyası": 8004,
      "hastanesi": 8005,
      "muhafaz": 8006,
      "zorluk": 8007,
      "las": 8008,
      "geçiren": 8009,
      "kafkas": 8010,
      "dağıtım": 8011,
      "##vaz": 8012,
      "eng": 8013,
      "##lesinin": 8014,
      "pratik": 8015,
      "olmasıdır": 8016,
      "serisinin": 8017,
      "dövüş": 8018,
      "cre": 8019,
      "tif": 8020,
      "ufak": 8021,
      "türet": 8022,
      "kariyerini": 8023,
      "anna": 8024,
      "gey": 8025,
      "şili": 8026,
      "öğrenciler": 8027,
      "ismiyle": 8028,
      "yansıt": 8029,
      "yedek": 8030,
      "carl": 8031,
      "birbirlerine": 8032,
      "erzin": 8033,
      "koalisyon": 8034,
      "tanesi": 8035,
      "terfi": 8036,
      "gan": 8037,
      "##nel": 8038,
      "alınır": 8039,
      "yolculuk": 8040,
      "saltan": 8041,
      "oradan": 8042,
      "##ehr": 8043,
      "dönüştü": 8044,
      "jac": 8045,
      "hayatının": 8046,
      "erişim": 8047,
      "##aşı": 8048,
      "sessiz": 8049,
      "##nun": 8050,
      "sürgün": 8051,
      "rivayet": 8052,
      "##ase": 8053,
      "şansı": 8054,
      "##uki": 8055,
      "döneminin": 8056,
      "ulaşmıştır": 8057,
      "dünyadaki": 8058,
      "##ganda": 8059,
      "tutuklandı": 8060,
      "belarus": 8061,
      "yazarlar": 8062,
      "paylaştı": 8063,
      "bulmak": 8064,
      "federasyon": 8065,
      "eliz": 8066,
      "##erson": 8067,
      "halep": 8068,
      "üstüne": 8069,
      "mr": 8070,
      "##lılı": 8071,
      "toplanan": 8072,
      "harekâ": 8073,
      "geldiğinde": 8074,
      "kuran": 8075,
      "yakınında": 8076,
      "##luğunun": 8077,
      "takımıyla": 8078,
      "deneyim": 8079,
      "##ecik": 8080,
      "sound": 8081,
      "nez": 8082,
      "##melidir": 8083,
      "nispeten": 8084,
      "tümen": 8085,
      "hassas": 8086,
      "evlili": 8087,
      "uygulanan": 8088,
      "topraklarına": 8089,
      "bildirdi": 8090,
      "bölgeyi": 8091,
      "yangın": 8092,
      "asla": 8093,
      "zamanlı": 8094,
      "güvenli": 8095,
      "ame": 8096,
      "##tron": 8097,
      "dayanır": 8098,
      "##uch": 8099,
      "norman": 8100,
      "biçiminde": 8101,
      "##guay": 8102,
      "eve": 8103,
      "üstlendiği": 8104,
      "halil": 8105,
      "##ıklı": 8106,
      "##ect": 8107,
      "kuzeybatı": 8108,
      "yamaç": 8109,
      "kulübün": 8110,
      "hus": 8111,
      "##une": 8112,
      "##örü": 8113,
      "diplomatik": 8114,
      "mağara": 8115,
      "görevlisi": 8116,
      "##pool": 8117,
      "caddesi": 8118,
      "piskop": 8119,
      "dj": 8120,
      "dahi": 8121,
      "##müştü": 8122,
      "##oğulları": 8123,
      "getirir": 8124,
      "##ınız": 8125,
      "özellikler": 8126,
      "istediği": 8127,
      "##hai": 8128,
      "belirtmiştir": 8129,
      "blo": 8130,
      "vası": 8131,
      "way": 8132,
      "profesörü": 8133,
      "yavru": 8134,
      "uygur": 8135,
      "kullanmak": 8136,
      "sınırı": 8137,
      "hein": 8138,
      "ade": 8139,
      "lord": 8140,
      "bant": 8141,
      "##chus": 8142,
      "deneysel": 8143,
      "ars": 8144,
      "enfeksiyon": 8145,
      "slav": 8146,
      "bozul": 8147,
      "hâlâ": 8148,
      "reş": 8149,
      "konsey": 8150,
      "##laşmış": 8151,
      "unesco": 8152,
      "niteli": 8153,
      "##mediğini": 8154,
      "muğ": 8155,
      "getirmiştir": 8156,
      "premier": 8157,
      "##ball": 8158,
      "##embe": 8159,
      "tamamlandı": 8160,
      "##tıktan": 8161,
      "##ão": 8162,
      "rolüyle": 8163,
      "simge": 8164,
      "değişiklikler": 8165,
      "ediyordu": 8166,
      "##osen": 8167,
      "yüksekliği": 8168,
      "getirilmiştir": 8169,
      "jones": 8170,
      "beni": 8171,
      "bölgesinden": 8172,
      "oblas": 8173,
      "ova": 8174,
      "önlemek": 8175,
      "sanatı": 8176,
      "i̇şlet": 8177,
      "##ics": 8178,
      "politikacı": 8179,
      "sıralam": 8180,
      "##gia": 8181,
      "ayaklanma": 8182,
      "##anus": 8183,
      "##ört": 8184,
      "hekim": 8185,
      "santa": 8186,
      "uyuştur": 8187,
      "geliştirilmiş": 8188,
      "##kk": 8189,
      "kızılder": 8190,
      "girdiği": 8191,
      "##lemiş": 8192,
      "bacak": 8193,
      "##general": 8194,
      "night": 8195,
      "##demir": 8196,
      "##ors": 8197,
      "##celi": 8198,
      "soci": 8199,
      "matematiksel": 8200,
      "kitapta": 8201,
      "verimli": 8202,
      "işleme": 8203,
      "##üğü": 8204,
      "yayımlanmıştır": 8205,
      "koydu": 8206,
      "annesinin": 8207,
      "şarkısıyla": 8208,
      "yolları": 8209,
      "yeğ": 8210,
      "üyelerinin": 8211,
      "günümüzdeki": 8212,
      "i̇nternet": 8213,
      "paz": 8214,
      "esk": 8215,
      "endon": 8216,
      "verilerine": 8217,
      "büyüy": 8218,
      "yenilik": 8219,
      "wood": 8220,
      "arkeolojik": 8221,
      "kolomb": 8222,
      "holding": 8223,
      "evrensel": 8224,
      "bağır": 8225,
      "yang": 8226,
      "askerler": 8227,
      "nihayet": 8228,
      "bilinç": 8229,
      "macera": 8230,
      "##lamanın": 8231,
      "anılır": 8232,
      "çekilmiştir": 8233,
      "ürünü": 8234,
      "##liga": 8235,
      "boşluk": 8236,
      "gide": 8237,
      "##onna": 8238,
      "çem": 8239,
      "delik": 8240,
      "##ebilecek": 8241,
      "müte": 8242,
      "gösteri": 8243,
      "##uluğunu": 8244,
      "tre": 8245,
      "manz": 8246,
      "dışına": 8247,
      "##gâh": 8248,
      "##urken": 8249,
      "düzelt": 8250,
      "gelişen": 8251,
      "##edrich": 8252,
      "universit": 8253,
      "life": 8254,
      "erzincan": 8255,
      "##his": 8256,
      "i̇zlanda": 8257,
      "radikal": 8258,
      "alanlar": 8259,
      "american": 8260,
      "nüfuslu": 8261,
      "buda": 8262,
      "topçu": 8263,
      "doç": 8264,
      "firma": 8265,
      "buğ": 8266,
      "isimleri": 8267,
      "kaynaklar": 8268,
      "mahmud": 8269,
      "adamları": 8270,
      "kalıp": 8271,
      "##lanmaya": 8272,
      "mam": 8273,
      "##pson": 8274,
      "##tikleri": 8275,
      "kolayca": 8276,
      "##ğimiz": 8277,
      "tüken": 8278,
      "görevinde": 8279,
      "brit": 8280,
      "jeff": 8281,
      "##sinin": 8282,
      "##trik": 8283,
      "savaşçı": 8284,
      "çıkarılan": 8285,
      "atöly": 8286,
      "kendisinden": 8287,
      "##elenen": 8288,
      "anak": 8289,
      "algı": 8290,
      "sürer": 8291,
      "sıraya": 8292,
      "orkestra": 8293,
      "friedrich": 8294,
      "##aç": 8295,
      "güneyde": 8296,
      "küre": 8297,
      "kadrosunda": 8298,
      "##dos": 8299,
      "grammy": 8300,
      "##ason": 8301,
      "youtube": 8302,
      "##gut": 8303,
      "##esun": 8304,
      "mod": 8305,
      "bilimleri": 8306,
      "selan": 8307,
      "etkileşim": 8308,
      "porn": 8309,
      "belirlenmiştir": 8310,
      "##ardo": 8311,
      "tarihten": 8312,
      "güneybatı": 8313,
      "karaca": 8314,
      "sözleşmesi": 8315,
      "gelindiğinde": 8316,
      "cast": 8317,
      "##zet": 8318,
      "otorit": 8319,
      "krizi": 8320,
      "maçları": 8321,
      "young": 8322,
      "##resi": 8323,
      "##enos": 8324,
      "##alaması": 8325,
      "belki": 8326,
      "##isindeki": 8327,
      "köt": 8328,
      "tüfek": 8329,
      "deng": 8330,
      "##ılıyordu": 8331,
      "çöl": 8332,
      "##ders": 8333,
      "meden": 8334,
      "##ğim": 8335,
      "öncelikle": 8336,
      "kartal": 8337,
      "tenis": 8338,
      "##fo": 8339,
      "##anna": 8340,
      "eklen": 8341,
      "##ıydı": 8342,
      "kariyerinde": 8343,
      "disiplin": 8344,
      "##non": 8345,
      "lew": 8346,
      "şanlıurfa": 8347,
      "ri": 8348,
      "kafa": 8349,
      "tasarlanmış": 8350,
      "##xt": 8351,
      "alanlarında": 8352,
      "law": 8353,
      "belirsiz": 8354,
      "sistemini": 8355,
      "olduklarını": 8356,
      "dairesi": 8357,
      "mardin": 8358,
      "kadrosuna": 8359,
      "yalan": 8360,
      "saldırıya": 8361,
      "muhalefet": 8362,
      "##gg": 8363,
      "i̇bn": 8364,
      "yozgat": 8365,
      "ilerle": 8366,
      "##urg": 8367,
      "parlamentosu": 8368,
      "verme": 8369,
      "ayrılmış": 8370,
      "gayet": 8371,
      "girmiş": 8372,
      "vaka": 8373,
      "zemin": 8374,
      "konfeder": 8375,
      "bulunması": 8376,
      "yönetici": 8377,
      "vektör": 8378,
      "yörünge": 8379,
      "mom": 8380,
      "şere": 8381,
      "teksas": 8382,
      "uzunluk": 8383,
      "eserinde": 8384,
      "rahip": 8385,
      "dizisinin": 8386,
      "maksimum": 8387,
      "yahudiler": 8388,
      "yayla": 8389,
      "ju": 8390,
      "deli": 8391,
      "oscar": 8392,
      "suçlu": 8393,
      "times": 8394,
      "suyun": 8395,
      "sömürge": 8396,
      "ömür": 8397,
      "koc": 8398,
      "davul": 8399,
      "uyumlu": 8400,
      "tecrüb": 8401,
      "##mekten": 8402,
      "hall": 8403,
      "lip": 8404,
      "sız": 8405,
      "milliyetçi": 8406,
      "lah": 8407,
      "komed": 8408,
      "bük": 8409,
      "defned": 8410,
      "saptan": 8411,
      "##abilirler": 8412,
      "bomba": 8413,
      "negatif": 8414,
      "selanik": 8415,
      "##eğin": 8416,
      "onar": 8417,
      "havz": 8418,
      "olacağı": 8419,
      "noktada": 8420,
      "cenev": 8421,
      "dâ": 8422,
      "ilişkisi": 8423,
      "müşter": 8424,
      "vezir": 8425,
      "##diklerini": 8426,
      "yerleşimi": 8427,
      "villa": 8428,
      "##ions": 8429,
      "##urlar": 8430,
      "tabaka": 8431,
      "icra": 8432,
      "tehlikeli": 8433,
      "rab": 8434,
      "sosy": 8435,
      "kurgu": 8436,
      "muhalif": 8437,
      "uyuşturucu": 8438,
      "kh": 8439,
      "vamp": 8440,
      "##amamıştır": 8441,
      "denizli": 8442,
      "##memesi": 8443,
      "alaska": 8444,
      "giresun": 8445,
      "grupta": 8446,
      "pah": 8447,
      "yem": 8448,
      "muharebe": 8449,
      "çayı": 8450,
      "##uya": 8451,
      "sadık": 8452,
      "sorunu": 8453,
      "eserin": 8454,
      "yoktu": 8455,
      "zeytin": 8456,
      "sicilya": 8457,
      "bilgileri": 8458,
      "aktr": 8459,
      "neticesinde": 8460,
      "rengi": 8461,
      "muhafazak": 8462,
      "ash": 8463,
      "##keli": 8464,
      "kaleci": 8465,
      "musa": 8466,
      "aran": 8467,
      "becer": 8468,
      "püs": 8469,
      "yönde": 8470,
      "civar": 8471,
      "brezilyalı": 8472,
      "##cep": 8473,
      "##yonu": 8474,
      "##sızın": 8475,
      "fikri": 8476,
      "dönemine": 8477,
      "##elenmiştir": 8478,
      "trop": 8479,
      "plastik": 8480,
      "##lamasına": 8481,
      "mars": 8482,
      "muz": 8483,
      "izlen": 8484,
      "##sit": 8485,
      "defter": 8486,
      "kaynaklarda": 8487,
      "##ebilen": 8488,
      "ox": 8489,
      "##yat": 8490,
      "düşer": 8491,
      "otuz": 8492,
      "yunus": 8493,
      "uzaklaştır": 8494,
      "doğuda": 8495,
      "##apı": 8496,
      "##önü": 8497,
      "tohum": 8498,
      "##oc": 8499,
      "serinin": 8500,
      "elizabeth": 8501,
      "tamamlayan": 8502,
      "grek": 8503,
      "daire": 8504,
      "şüphe": 8505,
      "nör": 8506,
      "##sey": 8507,
      "##ağının": 8508,
      "algorit": 8509,
      "htt": 8510,
      "##had": 8511,
      "şampiyonluğunu": 8512,
      "kavuş": 8513,
      "listelerinde": 8514,
      "karaman": 8515,
      "değişir": 8516,
      "böylelikle": 8517,
      "dun": 8518,
      "iba": 8519,
      "olduğunda": 8520,
      "florida": 8521,
      "##sini": 8522,
      "gelip": 8523,
      "ein": 8524,
      "pale": 8525,
      "miktarı": 8526,
      "çorum": 8527,
      "huzur": 8528,
      "konut": 8529,
      "gas": 8530,
      "##ento": 8531,
      "ağab": 8532,
      "gruptan": 8533,
      "kullanılabil": 8534,
      "silindir": 8535,
      "arm": 8536,
      "açan": 8537,
      "##otlar": 8538,
      "mektub": 8539,
      "prusya": 8540,
      "##ilmişti": 8541,
      "##oka": 8542,
      "##anlığın": 8543,
      "perde": 8544,
      "ideal": 8545,
      "god": 8546,
      "##çay": 8547,
      "sant": 8548,
      "düzenledi": 8549,
      "rakibi": 8550,
      "öğrenimini": 8551,
      "rub": 8552,
      "##tuğ": 8553,
      "derecesi": 8554,
      "beh": 8555,
      "halklardan": 8556,
      "topladı": 8557,
      "kitapları": 8558,
      "bölgesindeki": 8559,
      "gaga": 8560,
      "##erse": 8561,
      "yoksul": 8562,
      "penaltı": 8563,
      "gerektiği": 8564,
      "donanma": 8565,
      "pierre": 8566,
      "redded": 8567,
      "akarsu": 8568,
      "enstr": 8569,
      "gerekmektedir": 8570,
      "mürette": 8571,
      "ej": 8572,
      "##niyet": 8573,
      "girerek": 8574,
      "##oo": 8575,
      "ilişkilendir": 8576,
      "napol": 8577,
      "##eter": 8578,
      "bundes": 8579,
      "olgun": 8580,
      "atarak": 8581,
      "##ов": 8582,
      "yapının": 8583,
      "geçtiği": 8584,
      "sandaly": 8585,
      "müzak": 8586,
      "bı": 8587,
      "sik": 8588,
      "##memek": 8589,
      "oluşuyordu": 8590,
      "##lıktan": 8591,
      "imal": 8592,
      "##urn": 8593,
      "köye": 8594,
      "##ques": 8595,
      "kaybeden": 8596,
      "##öm": 8597,
      "oksijen": 8598,
      "kaymakam": 8599,
      "glo": 8600,
      "##tikçe": 8601,
      "araştırmaları": 8602,
      "kökeni": 8603,
      "##şah": 8604,
      "pl": 8605,
      "teorik": 8606,
      "okuma": 8607,
      "kulesi": 8608,
      "psikolojik": 8609,
      "destekleyen": 8610,
      "kolayla": 8611,
      "rh": 8612,
      "##ayıp": 8613,
      "hayır": 8614,
      "kuzeydoğu": 8615,
      "##chen": 8616,
      "emre": 8617,
      "cezası": 8618,
      "oluşmuştur": 8619,
      "##sp": 8620,
      "sekizinci": 8621,
      "yöneticisi": 8622,
      "##roz": 8623,
      "##rut": 8624,
      "uyarı": 8625,
      "hakem": 8626,
      "alınması": 8627,
      "çevrili": 8628,
      "ziyade": 8629,
      "oynamaya": 8630,
      "konsol": 8631,
      "alınmış": 8632,
      "fakülte": 8633,
      "kapak": 8634,
      "başbakanlık": 8635,
      "zihin": 8636,
      "düşüş": 8637,
      "##bini": 8638,
      "sürmüştür": 8639,
      "##oid": 8640,
      "kapısı": 8641,
      "formasıyla": 8642,
      "ortaç": 8643,
      "maliye": 8644,
      "sitesi": 8645,
      "intik": 8646,
      "dernek": 8647,
      "yarışmasında": 8648,
      "mirası": 8649,
      "estonya": 8650,
      "##lamalar": 8651,
      "evde": 8652,
      "ordunun": 8653,
      "##ularak": 8654,
      "çerçevesinde": 8655,
      "prodüktör": 8656,
      "büyükelçisi": 8657,
      "ayırt": 8658,
      "polonyalı": 8659,
      "şahin": 8660,
      "yıldan": 8661,
      "üreten": 8662,
      "harita": 8663,
      "akraba": 8664,
      "sisteminde": 8665,
      "konferansı": 8666,
      "redde": 8667,
      "##tisat": 8668,
      "tot": 8669,
      "##ozom": 8670,
      "tanrısı": 8671,
      "artvin": 8672,
      "çekici": 8673,
      "batıda": 8674,
      "kare": 8675,
      "ford": 8676,
      "eme": 8677,
      "şeref": 8678,
      "satı": 8679,
      "çif": 8680,
      "kiralık": 8681,
      "isteği": 8682,
      "merkezidir": 8683,
      "##usuna": 8684,
      "##ahisar": 8685,
      "komuta": 8686,
      "tamamlamıştır": 8687,
      "denize": 8688,
      "yapılar": 8689,
      "hollywood": 8690,
      "##lami": 8691,
      "özet": 8692,
      "eksen": 8693,
      "gönderilen": 8694,
      "elazığ": 8695,
      "##ison": 8696,
      "##ava": 8697,
      "canlandırdı": 8698,
      "##osunda": 8699,
      "meyv": 8700,
      "##cıları": 8701,
      "kullanmıştır": 8702,
      "zamanın": 8703,
      "alanına": 8704,
      "sancak": 8705,
      "çalışırken": 8706,
      "edece": 8707,
      "çim": 8708,
      "##tel": 8709,
      "##ayn": 8710,
      "içinden": 8711,
      "yolc": 8712,
      "klav": 8713,
      "geride": 8714,
      "##cili": 8715,
      "açıklamıştır": 8716,
      "tavsiye": 8717,
      "olmalıdır": 8718,
      "kuvveti": 8719,
      "adanın": 8720,
      "champions": 8721,
      "wa": 8722,
      "##lia": 8723,
      "trafik": 8724,
      "olmasının": 8725,
      "dalı": 8726,
      "takımları": 8727,
      "edici": 8728,
      "omur": 8729,
      "##lileri": 8730,
      "##ılmıştı": 8731,
      "tanındı": 8732,
      "büyüdü": 8733,
      "##helm": 8734,
      "bing": 8735,
      "ulaştır": 8736,
      "motoru": 8737,
      "##aları": 8738,
      "sanal": 8739,
      "şarkısını": 8740,
      "üstü": 8741,
      "endüstriyel": 8742,
      "xx": 8743,
      "arg": 8744,
      "işleri": 8745,
      "topluluğ": 8746,
      "tanımlanır": 8747,
      "kanadalı": 8748,
      "##cilerin": 8749,
      "##jo": 8750,
      "##azz": 8751,
      "katedr": 8752,
      "heav": 8753,
      "boks": 8754,
      "##lılığı": 8755,
      "yaşta": 8756,
      "##bolu": 8757,
      "alıyor": 8758,
      "atletizm": 8759,
      "bilinmemektedir": 8760,
      "uygar": 8761,
      "school": 8762,
      "hans": 8763,
      "sürdürmektedir": 8764,
      "gev": 8765,
      "görmüştür": 8766,
      "çoğunu": 8767,
      "faaliyetleri": 8768,
      "fabrikası": 8769,
      "portekizce": 8770,
      "##amayan": 8771,
      "bölümün": 8772,
      "getirilen": 8773,
      "havacılık": 8774,
      "fosil": 8775,
      "hong": 8776,
      "##limi": 8777,
      "sağlan": 8778,
      "sağlamaktadır": 8779,
      "sevg": 8780,
      "##larken": 8781,
      "##onlar": 8782,
      "maur": 8783,
      "yeryüz": 8784,
      "sıralan": 8785,
      "francisco": 8786,
      "##ea": 8787,
      "##cs": 8788,
      "##çuk": 8789,
      "bud": 8790,
      "##opter": 8791,
      "##alanı": 8792,
      "sattı": 8793,
      "kararnam": 8794,
      "group": 8795,
      "wrest": 8796,
      "##die": 8797,
      "olursa": 8798,
      "kütüphanesi": 8799,
      "hediye": 8800,
      "dede": 8801,
      "albay": 8802,
      "keşfet": 8803,
      "tri": 8804,
      "çav": 8805,
      "haftalık": 8806,
      "aldılar": 8807,
      "zeki": 8808,
      "getirdiği": 8809,
      "söylenir": 8810,
      "##rul": 8811,
      "luk": 8812,
      "##iminin": 8813,
      "önlem": 8814,
      "etkisiyle": 8815,
      "havay": 8816,
      "##lete": 8817,
      "kurgusal": 8818,
      "melek": 8819,
      "##lerken": 8820,
      "geçmişte": 8821,
      "##ake": 8822,
      "grubuna": 8823,
      "ülkedeki": 8824,
      "başlıklı": 8825,
      "hin": 8826,
      "soğut": 8827,
      "tunus": 8828,
      "sezar": 8829,
      "prim": 8830,
      "yürürlüğe": 8831,
      "çıkarıldı": 8832,
      "verilmektedir": 8833,
      "ülkeden": 8834,
      "küba": 8835,
      "depart": 8836,
      "programları": 8837,
      "püskür": 8838,
      "hir": 8839,
      "formül": 8840,
      "gecik": 8841,
      "kurmuştur": 8842,
      "team": 8843,
      "gereksin": 8844,
      "muhab": 8845,
      "evine": 8846,
      "tuttu": 8847,
      "saldırısı": 8848,
      "harekâtı": 8849,
      "yazarın": 8850,
      "##has": 8851,
      "rize": 8852,
      "til": 8853,
      "ال": 8854,
      "denen": 8855,
      "çevrimi": 8856,
      "bombardı": 8857,
      "##dıklarını": 8858,
      "##adı": 8859,
      "proto": 8860,
      "yarışmaya": 8861,
      "çocukların": 8862,
      "college": 8863,
      "##irya": 8864,
      "burun": 8865,
      "uğrat": 8866,
      "tanık": 8867,
      "bölümünün": 8868,
      "hâkim": 8869,
      "tanıtım": 8870,
      "##sburg": 8871,
      "##dum": 8872,
      "eleştiriler": 8873,
      "tunç": 8874,
      "##iko": 8875,
      "oyunlar": 8876,
      "senaryosunu": 8877,
      "maçlarını": 8878,
      "kategorisinde": 8879,
      "jane": 8880,
      "sının": 8881,
      "##ien": 8882,
      "##sion": 8883,
      "seçimlerde": 8884,
      "eks": 8885,
      "##lamadan": 8886,
      "hücum": 8887,
      "comp": 8888,
      "hisse": 8889,
      "liver": 8890,
      "kaldırıldı": 8891,
      "murad": 8892,
      "açar": 8893,
      "görevden": 8894,
      "gösterilir": 8895,
      "##ump": 8896,
      "golle": 8897,
      "kimse": 8898,
      "kütüphane": 8899,
      "##uck": 8900,
      "rio": 8901,
      "##jan": 8902,
      "aktris": 8903,
      "sermay": 8904,
      "madonna": 8905,
      "yeraltı": 8906,
      "hazar": 8907,
      "güvenilir": 8908,
      "sloven": 8909,
      "##lé": 8910,
      "##down": 8911,
      "##üme": 8912,
      "ligin": 8913,
      "büyüme": 8914,
      "çubuklu": 8915,
      "##abileceği": 8916,
      "##ović": 8917,
      "vizyon": 8918,
      "##içi": 8919,
      "ettikleri": 8920,
      "dim": 8921,
      "olanlar": 8922,
      "işgali": 8923,
      "arayüz": 8924,
      "rick": 8925,
      "yerleri": 8926,
      "kilisenin": 8927,
      "##ılmasından": 8928,
      "ekonomisi": 8929,
      "##emeye": 8930,
      "kru": 8931,
      "##istanı": 8932,
      "katılımı": 8933,
      "çalın": 8934,
      "hamil": 8935,
      "niz": 8936,
      "öden": 8937,
      "##list": 8938,
      "odas": 8939,
      "who": 8940,
      "etmişlerdir": 8941,
      "fakült": 8942,
      "bölgeler": 8943,
      "tutan": 8944,
      "dikkatini": 8945,
      "cent": 8946,
      "py": 8947,
      "##ces": 8948,
      "##haz": 8949,
      "özelliklerini": 8950,
      "limanı": 8951,
      "bilinmeyen": 8952,
      "abbas": 8953,
      "##elendi": 8954,
      "çözünür": 8955,
      "bası": 8956,
      "toy": 8957,
      "katliam": 8958,
      "sahte": 8959,
      "kaydı": 8960,
      "##iyorum": 8961,
      "sudan": 8962,
      "hollandalı": 8963,
      "sembo": 8964,
      "ameliy": 8965,
      "lü": 8966,
      "belirlen": 8967,
      "yarışmanın": 8968,
      "ikil": 8969,
      "giymiştir": 8970,
      "acil": 8971,
      "organı": 8972,
      "belirlemek": 8973,
      "##în": 8974,
      "yazan": 8975,
      "##oter": 8976,
      "pit": 8977,
      "##ute": 8978,
      "gelmesi": 8979,
      "katılır": 8980,
      "##abilmek": 8981,
      "hist": 8982,
      "tc": 8983,
      "yazında": 8984,
      "##mamak": 8985,
      "##ello": 8986,
      "görmüş": 8987,
      "finansal": 8988,
      "emniyet": 8989,
      "enerjisi": 8990,
      "##dimir": 8991,
      "ley": 8992,
      "##lamayı": 8993,
      "demokrasi": 8994,
      "fla": 8995,
      "##üsünü": 8996,
      "seslendirilen": 8997,
      "bahset": 8998,
      "birincil": 8999,
      "kurmak": 9000,
      "yarısı": 9001,
      "sipar": 9002,
      "imp": 9003,
      "kle": 9004,
      "##mede": 9005,
      "parçalan": 9006,
      "reich": 9007,
      "yükselmiştir": 9008,
      "toplumun": 9009,
      "süvari": 9010,
      "napolyon": 9011,
      "hd": 9012,
      "taç": 9013,
      "endonezya": 9014,
      "klin": 9015,
      "##cına": 9016,
      "ülkeyi": 9017,
      "##binin": 9018,
      "##melerini": 9019,
      "kurak": 9020,
      "bart": 9021,
      "##lığından": 9022,
      "pişir": 9023,
      "##lamı": 9024,
      "##esia": 9025,
      "değiştirdi": 9026,
      "solun": 9027,
      "rezerv": 9028,
      "yüzölçümüne": 9029,
      "çağrı": 9030,
      "şeytan": 9031,
      "boğazı": 9032,
      "##yanı": 9033,
      "##malarını": 9034,
      "sonlandır": 9035,
      "çoklu": 9036,
      "olmaması": 9037,
      "tanımlamak": 9038,
      "güzellik": 9039,
      "helik": 9040,
      "##çısı": 9041,
      "aygı": 9042,
      "çevresindeki": 9043,
      "istis": 9044,
      "osmanlılar": 9045,
      "oğludur": 9046,
      "ebev": 9047,
      "karabağ": 9048,
      "yazıt": 9049,
      "marie": 9050,
      "sıkıştır": 9051,
      "sonuçlandı": 9052,
      "wilhelm": 9053,
      "pik": 9054,
      "##bilmek": 9055,
      "rektör": 9056,
      "teşkilat": 9057,
      "malta": 9058,
      "##amıştı": 9059,
      "büyüklük": 9060,
      "köprüsü": 9061,
      "sözcüğ": 9062,
      "yönetti": 9063,
      "yavuz": 9064,
      "liz": 9065,
      "gürcüce": 9066,
      "sma": 9067,
      "i̇h": 9068,
      "##tive": 9069,
      "##aro": 9070,
      "olurken": 9071,
      "salg": 9072,
      "istihbarat": 9073,
      "##çili": 9074,
      "kişiyi": 9075,
      "##book": 9076,
      "##ebilmektedir": 9077,
      "torunu": 9078,
      "i̇lçesi": 9079,
      "politikası": 9080,
      "##lop": 9081,
      "##etler": 9082,
      "##ets": 9083,
      "od": 9084,
      "kolordu": 9085,
      "konuşulan": 9086,
      "##zım": 9087,
      "bad": 9088,
      "##stri": 9089,
      "çıkması": 9090,
      "yükseli": 9091,
      "saldırgan": 9092,
      "mont": 9093,
      "good": 9094,
      "verilmiş": 9095,
      "meydanı": 9096,
      "konservatuvarı": 9097,
      "oranında": 9098,
      "##uto": 9099,
      "##kent": 9100,
      "sayıları": 9101,
      "iletken": 9102,
      "muğla": 9103,
      "how": 9104,
      "sis": 9105,
      "korsan": 9106,
      "jor": 9107,
      "öm": 9108,
      "yerleşik": 9109,
      "etkiler": 9110,
      "karayolu": 9111,
      "##oke": 9112,
      "bileşik": 9113,
      "teşkilatı": 9114,
      "sayısının": 9115,
      "gazetesinde": 9116,
      "##fettiş": 9117,
      "sürecinde": 9118,
      "##ashi": 9119,
      "gözük": 9120,
      "joe": 9121,
      "uğradı": 9122,
      "liverpool": 9123,
      "teklifi": 9124,
      "mahmut": 9125,
      "dergisinde": 9126,
      "etken": 9127,
      "binanın": 9128,
      "aley": 9129,
      "panzer": 9130,
      "çarpışma": 9131,
      "mesafe": 9132,
      "##fl": 9133,
      "aracın": 9134,
      "kompoz": 9135,
      "tutum": 9136,
      "geliştirdi": 9137,
      "saman": 9138,
      "##tuk": 9139,
      "donat": 9140,
      "##oshi": 9141,
      "vladimir": 9142,
      "merkezinin": 9143,
      "uğur": 9144,
      "##lerindendir": 9145,
      "refah": 9146,
      "trakya": 9147,
      "cümle": 9148,
      "##ifer": 9149,
      "olayların": 9150,
      "johnson": 9151,
      "sunulan": 9152,
      "##port": 9153,
      "reis": 9154,
      "hatay": 9155,
      "topraklarında": 9156,
      "wes": 9157,
      "yazmaya": 9158,
      "gold": 9159,
      "ihtiyacı": 9160,
      "seyirci": 9161,
      "vs": 9162,
      "peyn": 9163,
      "pkk": 9164,
      "aralı": 9165,
      "##ecekti": 9166,
      "dayanarak": 9167,
      "ürünler": 9168,
      "gibidir": 9169,
      "harc": 9170,
      "yarattı": 9171,
      "##sche": 9172,
      "tümeni": 9173,
      "referans": 9174,
      "##bre": 9175,
      "adıdır": 9176,
      "aer": 9177,
      "yaşama": 9178,
      "halif": 9179,
      "riba": 9180,
      "açmıştır": 9181,
      "filmlerinde": 9182,
      "##ılış": 9183,
      "but": 9184,
      "dönemlerinde": 9185,
      "karşıt": 9186,
      "##ştiği": 9187,
      "görünüş": 9188,
      "siyasetçidir": 9189,
      "##giz": 9190,
      "##uluğa": 9191,
      "direkt": 9192,
      "mutlu": 9193,
      "eh": 9194,
      "başkanlığına": 9195,
      "bang": 9196,
      "boru": 9197,
      "##orf": 9198,
      "kullanmaya": 9199,
      "beat": 9200,
      "house": 9201,
      "yakından": 9202,
      "##ous": 9203,
      "robin": 9204,
      "koreli": 9205,
      "laur": 9206,
      "##olitik": 9207,
      "i̇talyanca": 9208,
      "ordusunu": 9209,
      "kuşatma": 9210,
      "high": 9211,
      "adındaki": 9212,
      "süm": 9213,
      "##kö": 9214,
      "yaşına": 9215,
      "##diy": 9216,
      "mevk": 9217,
      "kâğıt": 9218,
      "demektir": 9219,
      "##yazı": 9220,
      "okulun": 9221,
      "listede": 9222,
      "ejder": 9223,
      "salih": 9224,
      "lewis": 9225,
      "zo": 9226,
      "mevsim": 9227,
      "vade": 9228,
      "##renin": 9229,
      "bus": 9230,
      "maj": 9231,
      "kaçtı": 9232,
      "oc": 9233,
      "eren": 9234,
      "farklıdır": 9235,
      "hükümdarı": 9236,
      "ly": 9237,
      "kesiminde": 9238,
      "sorunlar": 9239,
      "yelken": 9240,
      "cey": 9241,
      "##zen": 9242,
      "i̇o": 9243,
      "massa": 9244,
      "andrew": 9245,
      "##ía": 9246,
      "hazırladı": 9247,
      "virgini": 9248,
      "alışveriş": 9249,
      "propa": 9250,
      "olmaz": 9251,
      "hazırladığı": 9252,
      "##sine": 9253,
      "kurmuş": 9254,
      "##süel": 9255,
      "zer": 9256,
      "birine": 9257,
      "##şten": 9258,
      "##over": 9259,
      "albümden": 9260,
      "öğrenim": 9261,
      "nijer": 9262,
      "##leşmiş": 9263,
      "kıyasla": 9264,
      "kolaylaştır": 9265,
      "birinde": 9266,
      "tatil": 9267,
      "yapımında": 9268,
      "görevleri": 9269,
      "imha": 9270,
      "nüfusa": 9271,
      "görünen": 9272,
      "mihail": 9273,
      "olabileceği": 9274,
      "nehr": 9275,
      "##set": 9276,
      "kilit": 9277,
      "mtv": 9278,
      "mun": 9279,
      "##bis": 9280,
      "ardı": 9281,
      "anlaştı": 9282,
      "niyet": 9283,
      "##binde": 9284,
      "yararlan": 9285,
      "oyuncunun": 9286,
      "atıldı": 9287,
      "satran": 9288,
      "bahse": 9289,
      "##uğu": 9290,
      "medi": 9291,
      "yle": 9292,
      "takma": 9293,
      "düzenlediği": 9294,
      "isimlendir": 9295,
      "sürük": 9296,
      "hayvanlar": 9297,
      "istediğini": 9298,
      "işken": 9299,
      "kardeşler": 9300,
      "gitarist": 9301,
      "simon": 9302,
      "izleyic": 9303,
      "yahudilerin": 9304,
      "barb": 9305,
      "zem": 9306,
      "olun": 9307,
      "columb": 9308,
      "sürücü": 9309,
      "yazıları": 9310,
[...]
